{
  "version": "1.0",
  "truncation": null,
  "padding": null,
  "added_tokens": [],
  "normalizer": {
    "type": "Sequence",
    "normalizers": [
      {
        "type": "Replace",
        "pattern": {
          "String": " "
        },
        "content": "▁"
      }
    ]
  },
  "pre_tokenizer": null,
  "post_processor": {
    "type": "TemplateProcessing",
    "single": [
      {
        "SpecialToken": {
          "id": "<s>",
          "type_id": 0
        }
      },
      {
        "Sequence": {
          "id": "A",
          "type_id": 0
        }
      }
    ],
    "pair": [
      {
        "SpecialToken": {
          "id": "<s>",
          "type_id": 0
        }
      },
      {
        "Sequence": {
          "id": "A",
          "type_id": 0
        }
      },
      {
        "SpecialToken": {
          "id": "<s>",
          "type_id": 1
        }
      },
      {
        "Sequence": {
          "id": "B",
          "type_id": 1
        }
      }
    ],
    "special_tokens": {
      "<s>": {
        "id": "<s>",
        "ids": [
          1
        ],
        "tokens": [
          "<s>"
        ]
      }
    }
  },
  "decoder": {
    "type": "Sequence",
    "decoders": [
      {
        "type": "Replace",
        "pattern": {
          "String": "▁"
        },
        "content": " "
      },
      {
        "type": "ByteFallback"
      },
      {
        "type": "Fuse"
      },
      {
        "type": "Strip",
        "content": " ",
        "start": 1,
        "stop": 0
      }
    ]
  },
  "model": {
    "type": "BPE",
    "dropout": null,
    "unk_token": "<unk>",
    "continuing_subword_prefix": null,
    "end_of_word_suffix": null,
    "fuse_unk": true,
    "byte_fallback": true,
    "vocab": {
      "<unk>": 0,
      "<s>": 1,
      "</s>": 2,
      "<0x00>": 3,
      "<0x01>": 4,
      "<0x02>": 5,
      "<0x03>": 6,
      "<0x04>": 7,
      "<0x05>": 8,
      "<0x06>": 9,
      "<0x07>": 10,
      "<0x08>": 11,
      "<0x09>": 12,
      "<0x0A>": 13,
      "<0x0B>": 14,
      "<0x0C>": 15,
      "<0x0D>": 16,
      "<0x0E>": 17,
      "<0x0F>": 18,
      "<0x10>": 19,
      "<0x11>": 20,
      "<0x12>": 21,
      "<0x13>": 22,
      "<0x14>": 23,
      "<0x15>": 24,
      "<0x16>": 25,
      "<0x17>": 26,
      "<0x18>": 27,
      "<0x19>": 28,
      "<0x1A>": 29,
      "<0x1B>": 30,
      "<0x1C>": 31,
      "<0x1D>": 32,
      "<0x1E>": 33,
      "<0x1F>": 34,
      "<0x20>": 35,
      "<0x21>": 36,
      "<0x22>": 37,
      "<0x23>": 38,
      "<0x24>": 39,
      "<0x25>": 40,
      "<0x26>": 41,
      "<0x27>": 42,
      "<0x28>": 43,
      "<0x29>": 44,
      "<0x2A>": 45,
      "<0x2B>": 46,
      "<0x2C>": 47,
      "<0x2D>": 48,
      "<0x2E>": 49,
      "<0x2F>": 50,
      "<0x30>": 51,
      "<0x31>": 52,
      "<0x32>": 53,
      "<0x33>": 54,
      "<0x34>": 55,
      "<0x35>": 56,
      "<0x36>": 57,
      "<0x37>": 58,
      "<0x38>": 59,
      "<0x39>": 60,
      "<0x3A>": 61,
      "<0x3B>": 62,
      "<0x3C>": 63,
      "<0x3D>": 64,
      "<0x3E>": 65,
      "<0x3F>": 66,
      "<0x40>": 67,
      "<0x41>": 68,
      "<0x42>": 69,
      "<0x43>": 70,
      "<0x44>": 71,
      "<0x45>": 72,
      "<0x46>": 73,
      "<0x47>": 74,
      "<0x48>": 75,
      "<0x49>": 76,
      "<0x4A>": 77,
      "<0x4B>": 78,
      "<0x4C>": 79,
      "<0x4D>": 80,
      "<0x4E>": 81,
      "<0x4F>": 82,
      "<0x50>": 83,
      "<0x51>": 84,
      "<0x52>": 85,
      "<0x53>": 86,
      "<0x54>": 87,
      "<0x55>": 88,
      "<0x56>": 89,
      "<0x57>": 90,
      "<0x58>": 91,
      "<0x59>": 92,
      "<0x5A>": 93,
      "<0x5B>": 94,
      "<0x5C>": 95,
      "<0x5D>": 96,
      "<0x5E>": 97,
      "<0x5F>": 98,
      "<0x60>": 99,
      "<0x61>": 100,
      "<0x62>": 101,
      "<0x63>": 102,
      "<0x64>": 103,
      "<0x65>": 104,
      "<0x66>": 105,
      "<0x67>": 106,
      "<0x68>": 107,
      "<0x69>": 108,
      "<0x6A>": 109,
      "<0x6B>": 110,
      "<0x6C>": 111,
      "<0x6D>": 112,
      "<0x6E>": 113,
      "<0x6F>": 114,
      "<0x70>": 115,
      "<0x71>": 116,
      "<0x72>": 117,
      "<0x73>": 118,
      "<0x74>": 119,
      "<0x75>": 120,
      "<0x76>": 121,
      "<0x77>": 122,
      "<0x78>": 123,
      "<0x79>": 124,
      "<0x7A>": 125,
      "<0x7B>": 126,
      "<0x7C>": 127,
      "<0x7D>": 128,
      "<0x7E>": 129,
      "<0x7F>": 130,
      "<0x80>": 131,
      "<0x81>": 132,
      "<0x82>": 133,
      "<0x83>": 134,
      "<0x84>": 135,
      "<0x85>": 136,
      "<0x86>": 137,
      "<0x87>": 138,
      "<0x88>": 139,
      "<0x89>": 140,
      "<0x8A>": 141,
      "<0x8B>": 142,
      "<0x8C>": 143,
      "<0x8D>": 144,
      "<0x8E>": 145,
      "<0x8F>": 146,
      "<0x90>": 147,
      "<0x91>": 148,
      "<0x92>": 149,
      "<0x93>": 150,
      "<0x94>": 151,
      "<0x95>": 152,
      "<0x96>": 153,
      "<0x97>": 154,
      "<0x98>": 155,
      "<0x99>": 156,
      "<0x9A>": 157,
      "<0x9B>": 158,
      "<0x9C>": 159,
      "<0x9D>": 160,
      "<0x9E>": 161,
      "<0x9F>": 162,
      "<0xA0>": 163,
      "<0xA1>": 164,
      "<0xA2>": 165,
      "<0xA3>": 166,
      "<0xA4>": 167,
      "<0xA5>": 168,
      "<0xA6>": 169,
      "<0xA7>": 170,
      "<0xA8>": 171,
      "<0xA9>": 172,
      "<0xAA>": 173,
      "<0xAB>": 174,
      "<0xAC>": 175,
      "<0xAD>": 176,
      "<0xAE>": 177,
      "<0xAF>": 178,
      "<0xB0>": 179,
      "<0xB1>": 180,
      "<0xB2>": 181,
      "<0xB3>": 182,
      "<0xB4>": 183,
      "<0xB5>": 184,
      "<0xB6>": 185,
      "<0xB7>": 186,
      "<0xB8>": 187,
      "<0xB9>": 188,
      "<0xBA>": 189,
      "<0xBB>": 190,
      "<0xBC>": 191,
      "<0xBD>": 192,
      "<0xBE>": 193,
      "<0xBF>": 194,
      "<0xC0>": 195,
      "<0xC1>": 196,
      "<0xC2>": 197,
      "<0xC3>": 198,
      "<0xC4>": 199,
      "<0xC5>": 200,
      "<0xC6>": 201,
      "<0xC7>": 202,
      "<0xC8>": 203,
      "<0xC9>": 204,
      "<0xCA>": 205,
      "<0xCB>": 206,
      "<0xCC>": 207,
      "<0xCD>": 208,
      "<0xCE>": 209,
      "<0xCF>": 210,
      "<0xD0>": 211,
      "<0xD1>": 212,
      "<0xD2>": 213,
      "<0xD3>": 214,
      "<0xD4>": 215,
      "<0xD5>": 216,
      "<0xD6>": 217,
      "<0xD7>": 218,
      "<0xD8>": 219,
      "<0xD9>": 220,
      "<0xDA>": 221,
      "<0xDB>": 222,
      "<0xDC>": 223,
      "<0xDD>": 224,
      "<0xDE>": 225,
      "<0xDF>": 226,
      "<0xE0>": 227,
      "<0xE1>": 228,
      "<0xE2>": 229,
      "<0xE3>": 230,
      "<0xE4>": 231,
      "<0xE5>": 232,
      "<0xE6>": 233,
      "<0xE7>": 234,
      "<0xE8>": 235,
      "<0xE9>": 236,
      "<0xEA>": 237,
      "<0xEB>": 238,
      "<0xEC>": 239,
      "<0xED>": 240,
      "<0xEE>": 241,
      "<0xEF>": 242,
      "<0xF0>": 243,
      "<0xF1>": 244,
      "<0xF2>": 245,
      "<0xF3>": 246,
      "<0xF4>": 247,
      "<0xF5>": 248,
      "<0xF6>": 249,
      "<0xF7>": 250,
      "<0xF8>": 251,
      "<0xF9>": 252,
      "<0xFA>": 253,
      "<0xFB>": 254,
      "<0xFC>": 255,
      "<0xFD>": 256,
      "<0xFE>": 257,
      "<0xFF>": 258,
      "'": 259,
      "b": 260,
      "e": 261,
      "▁": 262,
      "t": 263,
      "a": 264,
      "n": 265,
      "i": 266,
      "r": 267,
      "o": 268,
      "s": 269,
      "l": 270,
      "c": 271,
      "\\": 272,
      "d": 273,
      "x": 274,
      "u": 275,
      "p": 276,
      "m": 277,
      "\"": 278,
      "g": 279,
      "h": 280,
      ".": 281,
      "y": 282,
      "f": 283,
      "_": 284,
      "-": 285,
      "v": 286,
      "S": 287,
      "E": 288,
      "C": 289,
      "A": 290,
      "T": 291,
      "k": 292,
      "w": 293,
      "8": 294,
      "I": 295,
      "R": 296,
      "*": 297,
      "(": 298,
      "P": 299,
      "0": 300,
      "/": 301,
      "D": 302,
      "L": 303,
      "N": 304,
      "9": 305,
      "O": 306,
      "M": 307,
      "3": 308,
      "B": 309,
      "=": 310,
      "F": 311,
      "1": 312,
      ")": 313,
      "2": 314,
      "U": 315,
      "G": 316,
      "5": 317,
      "H": 318,
      "4": 319,
      "z": 320,
      "6": 321,
      "V": 322,
      "7": 323,
      "#": 324,
      "W": 325,
      "j": 326,
      "q": 327,
      ",": 328,
      ";": 329,
      ">": 330,
      "K": 331,
      "]": 332,
      "<": 333,
      ":": 334,
      "}": 335,
      "[": 336,
      "Y": 337,
      "J": 338,
      "{": 339,
      "$": 340,
      "X": 341,
      "+": 342,
      "Q": 343,
      "%": 344,
      "?": 345,
      "!": 346,
      "@": 347,
      "&": 348,
      "Z": 349,
      "`": 350,
      "~": 351,
      "|": 352,
      "^": 353,
      "\u0000": 354,
      "\u0001": 355,
      "\u0002": 356,
      "\u0003": 357,
      "\u0004": 358,
      "\u0005": 359,
      "\u0006": 360,
      "\u0007": 361,
      "\b": 362,
      "\t": 363,
      "\n": 364,
      "\u000b": 365,
      "\f": 366,
      "\r": 367,
      "\u000e": 368,
      "\u000f": 369,
      "\u0010": 370,
      "\u0011": 371,
      "\u0012": 372,
      "\u0013": 373,
      "\u0014": 374,
      "\u0015": 375,
      "\u0016": 376,
      "\u0017": 377,
      "\u0018": 378,
      "\u0019": 379,
      "\u001a": 380,
      "\u001b": 381,
      "\u001c": 382,
      "\u001d": 383,
      "\u001e": 384,
      "\u001f": 385,
      "": 386,
      "▁▁": 387,
      "▁▁▁▁": 388,
      "in": 389,
      "▁t": 390,
      "▁▁▁▁▁▁▁▁": 391,
      "er": 392,
      "▁▁▁": 393,
      "on": 394,
      "▁a": 395,
      "re": 396,
      "at": 397,
      "st": 398,
      "en": 399,
      "or": 400,
      "▁th": 401,
      "\n\n": 402,
      "▁c": 403,
      "le": 404,
      "▁s": 405,
      "it": 406,
      "an": 407,
      "ar": 408,
      "al": 409,
      "▁the": 410,
      ";\n": 411,
      "▁p": 412,
      "▁f": 413,
      "ou": 414,
      "▁=": 415,
      "is": 416,
      "▁▁▁▁▁▁▁": 417,
      "ing": 418,
      "es": 419,
      "▁w": 420,
      "ion": 421,
      "ed": 422,
      "ic": 423,
      "▁b": 424,
      "▁d": 425,
      "et": 426,
      "▁m": 427,
      "▁o": 428,
      "\t\t": 429,
      "ro": 430,
      "as": 431,
      "el": 432,
      "ct": 433,
      "nd": 434,
      "▁in": 435,
      "▁h": 436,
      "ent": 437,
      "id": 438,
      "▁n": 439,
      "am": 440,
      "▁▁▁▁▁▁▁▁▁▁▁": 441,
      "▁to": 442,
      "▁re": 443,
      "--": 444,
      "▁{": 445,
      "▁of": 446,
      "om": 447,
      ");\n": 448,
      "im": 449,
      "\r\n": 450,
      "▁(": 451,
      "il": 452,
      "//": 453,
      "▁and": 454,
      "ur": 455,
      "se": 456,
      "▁l": 457,
      "ex": 458,
      "▁S": 459,
      "ad": 460,
      "▁\"": 461,
      "ch": 462,
      "ut": 463,
      "if": 464,
      "**": 465,
      "▁}": 466,
      "em": 467,
      "ol": 468,
      "▁▁▁▁▁▁▁▁▁▁▁▁▁▁▁▁": 469,
      "th": 470,
      ")\n": 471,
      "▁{\n": 472,
      "▁g": 473,
      "ig": 474,
      "iv": 475,
      ",\n": 476,
      "ce": 477,
      "od": 478,
      "▁v": 479,
      "ate": 480,
      "▁T": 481,
      "ag": 482,
      "ay": 483,
      "▁*": 484,
      "ot": 485,
      "us": 486,
      "▁C": 487,
      "▁st": 488,
      "▁I": 489,
      "un": 490,
      "ul": 491,
      "ue": 492,
      "▁A": 493,
      "ow": 494,
      "▁'": 495,
      "ew": 496,
      "▁<": 497,
      "ation": 498,
      "()": 499,
      "▁for": 500,
      "ab": 501,
      "ort": 502,
      "um": 503,
      "ame": 504,
      "▁is": 505,
      "pe": 506,
      "tr": 507,
      "ck": 508,
      "▁y": 509,
      "ist": 510,
      "----": 511,
      ".\n\n": 512,
      "he": 513,
      "▁e": 514,
      "lo": 515,
      "▁M": 516,
      "▁be": 517,
      "ers": 518,
      "▁on": 519,
      "▁con": 520,
      "ap": 521,
      "ub": 522,
      "▁P": 523,
      "▁▁▁▁▁▁▁▁▁▁▁▁▁▁▁": 524,
      "ass": 525,
      "int": 526,
      ">\n": 527,
      "ly": 528,
      "urn": 529,
      "▁$": 530,
      ";\n\n": 531,
      "av": 532,
      "port": 533,
      "ir": 534,
      "->": 535,
      "nt": 536,
      "ction": 537,
      "end": 538,
      "▁de": 539,
      "00": 540,
      "ith": 541,
      "out": 542,
      "turn": 543,
      "our": 544,
      "▁▁▁▁▁": 545,
      "lic": 546,
      "res": 547,
      "pt": 548,
      "==": 549,
      "▁this": 550,
      "▁wh": 551,
      "▁if": 552,
      "▁D": 553,
      "ver": 554,
      "age": 555,
      "▁B": 556,
      "ht": 557,
      "ext": 558,
      "=\"": 559,
      "▁that": 560,
      "****": 561,
      "▁R": 562,
      "▁it": 563,
      "ess": 564,
      "▁F": 565,
      "▁r": 566,
      "os": 567,
      "and": 568,
      "▁as": 569,
      "ect": 570,
      "ke": 571,
      "rom": 572,
      "▁//": 573,
      "con": 574,
      "▁L": 575,
      "(\"": 576,
      "qu": 577,
      "lass": 578,
      "▁with": 579,
      "iz": 580,
      "de": 581,
      "▁N": 582,
      "▁al": 583,
      "op": 584,
      "up": 585,
      "get": 586,
      "▁}\n": 587,
      "ile": 588,
      "▁an": 589,
      "ata": 590,
      "ore": 591,
      "ri": 592,
      "▁pro": 593,
      ";\r\n": 594,
      "\t\t\t\t": 595,
      "ter": 596,
      "ain": 597,
      "▁W": 598,
      "▁E": 599,
      "▁com": 600,
      "▁return": 601,
      "art": 602,
      "▁H": 603,
      "ack": 604,
      "import": 605,
      "ublic": 606,
      "▁or": 607,
      "est": 608,
      "ment": 609,
      "▁G": 610,
      "able": 611,
      "▁-": 612,
      "ine": 613,
      "ill": 614,
      "ind": 615,
      "ere": 616,
      "::": 617,
      "ity": 618,
      "▁+": 619,
      "▁tr": 620,
      "elf": 621,
      "ight": 622,
      "('": 623,
      "orm": 624,
      "ult": 625,
      "str": 626,
      "..": 627,
      "\",": 628,
      "▁you": 629,
      "ype": 630,
      "pl": 631,
      "▁new": 632,
      "▁j": 633,
      "▁▁▁▁▁▁▁▁▁▁▁▁▁▁▁▁▁▁▁": 634,
      "▁from": 635,
      "▁ex": 636,
      "▁O": 637,
      "20": 638,
      "ld": 639,
      "▁[": 640,
      "oc": 641,
      ":\n": 642,
      "▁se": 643,
      "▁le": 644,
      "--------": 645,
      ".s": 646,
      "{\n": 647,
      "',": 648,
      "ant": 649,
      "▁at": 650,
      "ase": 651,
      ".c": 652,
      "▁ch": 653,
      "</": 654,
      "ave": 655,
      "ang": 656,
      "▁are": 657,
      "▁int": 658,
      "_t": 659,
      "ert": 660,
      "ial": 661,
      "act": 662,
      "}\n": 663,
      "ive": 664,
      "ode": 665,
      "ost": 666,
      "▁class": 667,
      "▁not": 668,
      "og": 669,
      "ord": 670,
      "alue": 671,
      "all": 672,
      "ff": 673,
      "();\n": 674,
      "ont": 675,
      "ime": 676,
      "are": 677,
      "▁U": 678,
      "▁pr": 679,
      "▁:": 680,
      "ies": 681,
      "ize": 682,
      "ure": 683,
      "▁by": 684,
      "ire": 685,
      "▁}\n\n": 686,
      ".p": 687,
      "▁sh": 688,
      "ice": 689,
      "ast": 690,
      "ption": 691,
      "tring": 692,
      "ok": 693,
      "__": 694,
      "cl": 695,
      "##": 696,
      "▁he": 697,
      "ard": 698,
      ").": 699,
      "▁@": 700,
      "iew": 701,
      "\t\t\t": 702,
      "▁was": 703,
      "ip": 704,
      "this": 705,
      "▁u": 706,
      "▁The": 707,
      "ide": 708,
      "ace": 709,
      "ib": 710,
      "ac": 711,
      "rou": 712,
      "▁we": 713,
      "ject": 714,
      "▁public": 715,
      "ak": 716,
      "ve": 717,
      "ath": 718,
      "oid": 719,
      "▁=>": 720,
      "ust": 721,
      "que": 722,
      "▁res": 723,
      "))": 724,
      "'s": 725,
      "▁k": 726,
      "ans": 727,
      "yst": 728,
      "unction": 729,
      "********": 730,
      "▁i": 731,
      "▁us": 732,
      "pp": 733,
      "10": 734,
      "one": 735,
      "ail": 736,
      "====": 737,
      "name": 738,
      "▁str": 739,
      "▁/": 740,
      "▁&": 741,
      "ach": 742,
      "div": 743,
      "ystem": 744,
      "ell": 745,
      "▁have": 746,
      "err": 747,
      "ould": 748,
      "ull": 749,
      "pon": 750,
      "▁J": 751,
      "_p": 752,
      "▁==": 753,
      "ign": 754,
      "St": 755,
      ".\n": 756,
      "▁pl": 757,
      ");\n\n": 758,
      "form": 759,
      "put": 760,
      "ount": 761,
      "}\n\n": 762,
      "dd": 763,
      "ite": 764,
      "▁get": 765,
      "rr": 766,
      "ome": 767,
      "aram": 768,
      "cc": 769,
      "▁*/": 770,
      "ER": 771,
      "In": 772,
      "les": 773,
      "_s": 774,
      "ong": 775,
      "ie": 776,
      "▁can": 777,
      "▁V": 778,
      "erv": 779,
      "pr": 780,
      "▁un": 781,
      "row": 782,
      "ber": 783,
      "▁do": 784,
      "ll": 785,
      "▁el": 786,
      "▁self": 787,
      "ated": 788,
      "ary": 789,
      "▁.": 790,
      "']": 791,
      "ud": 792,
      "▁en": 793,
      "▁Th": 794,
      "▁▁▁▁▁▁▁▁▁▁▁▁▁▁▁▁▁▁▁▁▁▁▁": 795,
      "te": 796,
      "_c": 797,
      "uct": 798,
      "▁ab": 799,
      "ork": 800,
      ".get": 801,
      "▁#": 802,
      "aw": 803,
      "ress": 804,
      "ob": 805,
      "Name": 806,
      "201": 807,
      "app": 808,
      "['": 809,
      "▁all": 810,
      "ory": 811,
      "ition": 812,
      "ance": 813,
      "ear": 814,
      "▁cont": 815,
      "vent": 816,
      "ia": 817,
      "▁will": 818,
      "IN": 819,
      "▁▁▁▁▁▁▁▁▁": 820,
      "return": 821,
      "▁</": 822,
      "data": 823,
      ")\n\n": 824,
      "Re": 825,
      "ple": 826,
      "ild": 827,
      "ther": 828,
      "▁your": 829,
      "\"\n": 830,
      "($": 831,
      "▁out": 832,
      "),": 833,
      "▁has": 834,
      "String": 835,
      "so": 836,
      "▁up": 837,
      "ax": 838,
      "▁def": 839,
      "▁bo": 840,
      "ge": 841,
      "alse": 842,
      "ON": 843,
      "per": 844,
      "12": 845,
      "ich": 846,
      "▁but": 847,
      "▁\n": 848,
      "▁_": 849,
      "_m": 850,
      "add": 851,
      "quest": 852,
      "odel": 853,
      "self": 854,
      "ery": 855,
      "ft": 856,
      "ens": 857,
      "////": 858,
      "ake": 859,
      ".C": 860,
      "▁go": 861,
      "▁function": 862,
      "▁K": 863,
      "ivate": 864,
      "▁im": 865,
      "▁const": 866,
      ".t": 867,
      "▁*/\n": 868,
      ");\r\n": 869,
      "▁void": 870,
      "▁set": 871,
      "▁System": 872,
      "cri": 873,
      "()\n": 874,
      "li": 875,
      "\tif": 876,
      ".m": 877,
      "ally": 878,
      "set": 879,
      "ep": 880,
      "bo": 881,
      "def": 882,
      "',\n": 883,
      "▁me": 884,
      "▁!": 885,
      "atch": 886,
      "\">": 887,
      "\",\n": 888,
      "ec": 889,
      "▁In": 890,
      "ph": 891,
      "▁|": 892,
      "_f": 893,
      "▁var": 894,
      "ence": 895,
      "Id": 896,
      "ree": 897,
      "ink": 898,
      "lect": 899,
      "ug": 900,
      "eth": 901,
      "▁else": 902,
      "----------------": 903,
      "19": 904,
      "cont": 905,
      "▁so": 906,
      "atic": 907,
      "▁lo": 908,
      "pro": 909,
      "ton": 910,
      "ss": 911,
      "own": 912,
      "abel": 913,
      "oint": 914,
      "ous": 915,
      "eld": 916,
      "ST": 917,
      "The": 918,
      "▁▁▁▁▁▁▁▁▁▁▁▁▁▁▁▁▁▁▁▁▁▁▁▁▁▁▁▁▁▁▁▁": 919,
      "RE": 920,
      "\":": 921,
      "olor": 922,
      "tp": 923,
      "eg": 924,
      "key": 925,
      "ude": 926,
      "▁St": 927,
      "ound": 928,
      "▁ar": 929,
      "\");\n": 930,
      "ener": 931,
      "ser": 932,
      "11": 933,
      "bject": 934,
      "essage": 935,
      "fer": 936,
      "▁more": 937,
      "ations": 938,
      "ents": 939,
      "▁his": 940,
      "▁they": 941,
      ".S": 942,
      "▁Y": 943,
      "use": 944,
      "ne": 945,
      "ish": 946,
      "old": 947,
      "_d": 948,
      "io": 949,
      "ield": 950,
      "▁per": 951,
      "Cont": 952,
      "ings": 953,
      "####": 954,
      "▁data": 955,
      "▁sa": 956,
      "ef": 957,
      "fo": 958,
      "▁one": 959,
      "eng": 960,
      "▁dis": 961,
      "AT": 962,
      "▁name": 963,
      "▁true": 964,
      "val": 965,
      "led": 966,
      ".f": 967,
      "▁ne": 968,
      "▁end": 969,
      "32": 970,
      ".T": 971,
      "16": 972,
      "cre": 973,
      "ark": 974,
      "log": 975,
      "Ex": 976,
      "error": 977,
      "_id": 978,
      "urre": 979,
      "ange": 980,
      "▁null": 981,
      "rray": 982,
      "▁my": 983,
      "pan": 984,
      "ict": 985,
      "ator": 986,
      "View": 987,
      "List": 988,
      "\treturn": 989,
      "▁pre": 990,
      "▁x": 991,
      "clude": 992,
      "arg": 993,
      "15": 994,
      "ov": 995,
      ".h": 996,
      "▁>": 997,
      "▁their": 998,
      "')": 999,
      "irst": 1000,
      "ick": 1001,
      "gh": 1002,
      "LE": 1003,
      "OR": 1004,
      "▁private": 1005,
      "tem": 1006,
      "\r\n\r\n": 1007,
      "user": 1008,
      "▁)": 1009,
      "com": 1010,
      ".A": 1011,
      "\";\n": 1012,
      "▁id": 1013,
      "read": 1014,
      "▁who": 1015,
      "_b": 1016,
      "\">\n": 1017,
      "▁time": 1018,
      "▁man": 1019,
      "ry": 1020,
      "========": 1021,
      "roup": 1022,
      "rop": 1023,
      "public": 1024,
      "vel": 1025,
      "umber": 1026,
      "ble": 1027,
      "▁which": 1028,
      "****************": 1029,
      "▁any": 1030,
      "▁false": 1031,
      "we": 1032,
      "▁value": 1033,
      "▁li": 1034,
      "\")": 1035,
      "nder": 1036,
      "gr": 1037,
      "▁no": 1038,
      "param": 1039,
      "25": 1040,
      "fig": 1041,
      ".com": 1042,
      "▁app": 1043,
      "_l": 1044,
      "ions": 1045,
      ".D": 1046,
      "▁Ch": 1047,
      "▁about": 1048,
      "▁add": 1049,
      "▁su": 1050,
      "▁string": 1051,
      "ID": 1052,
      "▁over": 1053,
      "string": 1054,
      ".l": 1055,
      "ource": 1056,
      "000": 1057,
      "_C": 1058,
      "]\n": 1059,
      "▁qu": 1060,
      "▁String": 1061,
      "ca": 1062,
      "SE": 1063,
      "▁ro": 1064,
      "sh": 1065,
      "ual": 1066,
      "Type": 1067,
      "son": 1068,
      "new": 1069,
      "ern": 1070,
      "▁ag": 1071,
      "AR": 1072,
      "];\n": 1073,
      "].": 1074,
      "▁?": 1075,
      "ical": 1076,
      "▁des": 1077,
      "uth": 1078,
      "ix": 1079,
      "ays": 1080,
      "▁type": 1081,
      "'t": 1082,
      "ault": 1083,
      "▁inter": 1084,
      "var": 1085,
      ".b": 1086,
      "▁part": 1087,
      ".d": 1088,
      "urrent": 1089,
      "IT": 1090,
      "EN": 1091,
      "30": 1092,
      "enc": 1093,
      "(f": 1094,
      "ra": 1095,
      "value": 1096,
      "cho": 1097,
      "18": 1098,
      "utton": 1099,
      "ose": 1100,
      "14": 1101,
      "▁!=": 1102,
      "ater": 1103,
      "reate": 1104,
      "oll": 1105,
      "pos": 1106,
      "yle": 1107,
      "ng": 1108,
      "AL": 1109,
      "using": 1110,
      "ames": 1111,
      "▁{\r\n": 1112,
      "ates": 1113,
      "ely": 1114,
      "▁work": 1115,
      "▁em": 1116,
      "inal": 1117,
      "▁sp": 1118,
      "▁when": 1119,
      ".set": 1120,
      "▁▁▁▁▁▁": 1121,
      "):\n": 1122,
      "to": 1123,
      "quire": 1124,
      "indow": 1125,
      "lement": 1126,
      "pect": 1127,
      "ash": 1128,
      "[i": 1129,
      "▁use": 1130,
      ".F": 1131,
      "pec": 1132,
      "▁ad": 1133,
      "ove": 1134,
      "ception": 1135,
      "ength": 1136,
      "include": 1137,
      "ader": 1138,
      "▁▁▁▁▁▁▁▁▁▁▁▁▁▁▁▁▁▁▁▁▁▁▁▁▁▁▁": 1139,
      "atus": 1140,
      "Th": 1141,
      "itle": 1142,
      "rit": 1143,
      "void": 1144,
      "().": 1145,
      "(\n": 1146,
      "▁off": 1147,
      "▁other": 1148,
      "▁&&": 1149,
      "';\n": 1150,
      "ms": 1151,
      "▁been": 1152,
      "▁te": 1153,
      "ml": 1154,
      "co": 1155,
      "nc": 1156,
      "13": 1157,
      "ervice": 1158,
      "▁%": 1159,
      "**\n": 1160,
      "ann": 1161,
      "ade": 1162,
      "\n\n\n\n": 1163,
      "lock": 1164,
      "const": 1165,
      "100": 1166,
      "ponse": 1167,
      "▁sup": 1168,
      "++": 1169,
      "date": 1170,
      "▁acc": 1171,
      "▁had": 1172,
      "▁bu": 1173,
      "200": 1174,
      "▁Re": 1175,
      "▁were": 1176,
      "▁file": 1177,
      "▁would": 1178,
      "ven": 1179,
      "iss": 1180,
      "▁our": 1181,
      "class": 1182,
      "raw": 1183,
      "▁year": 1184,
      "Data": 1185,
      "▁val": 1186,
      "▁some": 1187,
      "fter": 1188,
      "ys": 1189,
      "▁///": 1190,
      "round": 1191,
      "view": 1192,
      "▁pe": 1193,
      "▁there": 1194,
      "▁said": 1195,
      "du": 1196,
      "of": 1197,
      "line": 1198,
      "/*": 1199,
      "duct": 1200,
      "▁her": 1201,
      "▁▁▁▁▁▁▁▁▁▁▁▁▁": 1202,
      "Res": 1203,
      "▁co": 1204,
      "▁comm": 1205,
      "ise": 1206,
      "min": 1207,
      "▁▁▁▁\n": 1208,
      "#include": 1209,
      "ethod": 1210,
      ".P": 1211,
      "ute": 1212,
      "▁ass": 1213,
      "Int": 1214,
      "ask": 1215,
      "loc": 1216,
      "▁like": 1217,
      "ody": 1218,
      "▁let": 1219,
      "load": 1220,
      "▁am": 1221,
      "rol": 1222,
      "▁gr": 1223,
      "yp": 1224,
      "▁also": 1225,
      "▁It": 1226,
      "url": 1227,
      "ific": 1228,
      "ors": 1229,
      "_P": 1230,
      "_n": 1231,
      "igh": 1232,
      "▁than": 1233,
      "Com": 1234,
      "AN": 1235,
      "UL": 1236,
      "ating": 1237,
      "17": 1238,
      "▁This": 1239,
      "ref": 1240,
      "_S": 1241,
      "▁static": 1242,
      "roll": 1243,
      "▁just": 1244,
      "▁result": 1245,
      "ian": 1246,
      "idth": 1247,
      "▁them": 1248,
      "));\n": 1249,
      "der": 1250,
      "reak": 1251,
      "Con": 1252,
      "://": 1253,
      "ule": 1254,
      "...": 1255,
      "arch": 1256,
      "ement": 1257,
      "▁<<": 1258,
      "50": 1259,
      "ush": 1260,
      "ense": 1261,
      "arr": 1262,
      "▁into": 1263,
      "cess": 1264,
      "amp": 1265,
      "ied": 1266,
      "ument": 1267,
      "▁\\": 1268,
      "],": 1269,
      "wo": 1270,
      "als": 1271,
      "▁what": 1272,
      "anc": 1273,
      "Value": 1274,
      "='": 1275,
      "olum": 1276,
      "▁pos": 1277,
      "ages": 1278,
      "ayer": 1279,
      "▁sc": 1280,
      "ues": 1281,
      "\")\n": 1282,
      "_T": 1283,
      "▁list": 1284,
      "(s": 1285,
      "▁case": 1286,
      "Ch": 1287,
      "\t\t\t\t\t": 1288,
      "////////": 1289,
      "ponent": 1290,
      "▁z": 1291,
      "▁kn": 1292,
      "let": 1293,
      "DE": 1294,
      "red": 1295,
      "▁fe": 1296,
      "▁},\n": 1297,
      "▁,": 1298,
      "(t": 1299,
      "▁first": 1300,
      "');\n": 1301,
      "word": 1302,
      "▁import": 1303,
      "▁act": 1304,
      "▁char": 1305,
      "CT": 1306,
      "▁Tr": 1307,
      "ople": 1308,
      "={": 1309,
      "\tf": 1310,
      "24": 1311,
      "ient": 1312,
      "cent": 1313,
      ".j": 1314,
      "lection": 1315,
      "))\n": 1316,
      "▁only": 1317,
      "▁print": 1318,
      "mer": 1319,
      ".W": 1320,
      "ock": 1321,
      "▁--": 1322,
      "Text": 1323,
      "▁op": 1324,
      "ank": 1325,
      "▁its": 1326,
      "▁back": 1327,
      "[\"": 1328,
      "▁need": 1329,
      "▁cl": 1330,
      "▁sub": 1331,
      "▁la": 1332,
      "((": 1333,
      ".\"": 1334,
      "Object": 1335,
      "▁start": 1336,
      "file": 1337,
      "(self": 1338,
      "ner": 1339,
      "ey": 1340,
      "▁user": 1341,
      "▁ent": 1342,
      "▁Com": 1343,
      "its": 1344,
      "▁Con": 1345,
      "ouble": 1346,
      "ower": 1347,
      "item": 1348,
      "very": 1349,
      "▁We": 1350,
      "64": 1351,
      "lick": 1352,
      "▁Q": 1353,
      "php": 1354,
      "ttp": 1355,
      "':": 1356,
      "ics": 1357,
      "▁under": 1358,
      "▁*\n": 1359,
      ".L": 1360,
      ");": 1361,
      "ices": 1362,
      "▁reg": 1363,
      ")\r\n": 1364,
      "\tpublic": 1365,
      "SS": 1366,
      "▁then": 1367,
      "reat": 1368,
      "ious": 1369,
      ".G": 1370,
      "ek": 1371,
      "irect": 1372,
      "heck": 1373,
      "cript": 1374,
      "ning": 1375,
      "▁Un": 1376,
      "▁may": 1377,
      "▁Wh": 1378,
      "Bo": 1379,
      "Item": 1380,
      "struct": 1381,
      ".st": 1382,
      "ream": 1383,
      "ible": 1384,
      "loat": 1385,
      "▁org": 1386,
      "und": 1387,
      "sum": 1388,
      "_in": 1389,
      "../": 1390,
      "_M": 1391,
      "▁how": 1392,
      "rite": 1393,
      "'\n": 1394,
      "To": 1395,
      "40": 1396,
      "ww": 1397,
      "▁people": 1398,
      "index": 1399,
      ".n": 1400,
      "http": 1401,
      "(m": 1402,
      "ector": 1403,
      "▁ind": 1404,
      "▁jav": 1405,
      "],\n": 1406,
      "▁He": 1407,
      "_st": 1408,
      "ful": 1409,
      "ole": 1410,
      "){\n": 1411,
      "▁should": 1412,
      "opy": 1413,
      "elp": 1414,
      "ier": 1415,
      "_name": 1416,
      "erson": 1417,
      "ION": 1418,
      "ote": 1419,
      "▁test": 1420,
      "▁bet": 1421,
      "rror": 1422,
      "ular": 1423,
      "bs": 1424,
      "ting": 1425,
      "▁make": 1426,
      "Tr": 1427,
      "▁after": 1428,
      "arget": 1429,
      "RO": 1430,
      "olumn": 1431,
      "rc": 1432,
      "_re": 1433,
      "define": 1434,
      "22": 1435,
      "▁right": 1436,
      "right": 1437,
      "day": 1438,
      "▁long": 1439,
      "[]": 1440,
      "(p": 1441,
      "td": 1442,
      "cond": 1443,
      "▁Pro": 1444,
      "▁rem": 1445,
      "ptions": 1446,
      "vid": 1447,
      ".g": 1448,
      "▁ext": 1449,
      "▁__": 1450,
      "')\n": 1451,
      "pace": 1452,
      "mp": 1453,
      "▁min": 1454,
      "stance": 1455,
      "air": 1456,
      "action": 1457,
      "wh": 1458,
      "type": 1459,
      "util": 1460,
      "ait": 1461,
      "<?": 1462,
      "IC": 1463,
      "text": 1464,
      "▁ph": 1465,
      "▁fl": 1466,
      ".M": 1467,
      "ccess": 1468,
      "br": 1469,
      "fore": 1470,
      "ersion": 1471,
      "),\n": 1472,
      ".re": 1473,
      "ateg": 1474,
      "▁loc": 1475,
      "ins": 1476,
      "-s": 1477,
      "trib": 1478,
      "▁Int": 1479,
      "▁array": 1480,
      ",\"": 1481,
      "Pro": 1482,
      "(c": 1483,
      "ession": 1484,
      ">\n\n": 1485,
      "▁she": 1486,
      "\"]": 1487,
      "aph": 1488,
      "▁exp": 1489,
      "erty": 1490,
      "▁Se": 1491,
      "▁par": 1492,
      "unc": 1493,
      "ET": 1494,
      "▁read": 1495,
      "print": 1496,
      "▁rel": 1497,
      "▁form": 1498,
      "▁dr": 1499,
      "Exception": 1500,
      "input": 1501,
      "▁trans": 1502,
      "########": 1503,
      "order": 1504,
      "By": 1505,
      "▁aw": 1506,
      "ities": 1507,
      "uff": 1508,
      "play": 1509,
      ".add": 1510,
      "▁want": 1511,
      "▁comp": 1512,
      "ments": 1513,
      "▁||": 1514,
      "az": 1515,
      "be": 1516,
      "▁number": 1517,
      "▁require": 1518,
      "▁Ex": 1519,
      "60": 1520,
      "▁col": 1521,
      "▁key": 1522,
      "ember": 1523,
      "▁two": 1524,
      "▁size": 1525,
      "▁where": 1526,
      "UT": 1527,
      "result": 1528,
      "▁▁▁▁▁▁▁▁▁▁▁▁▁▁▁▁▁▁▁▁▁▁▁▁▁▁▁▁▁▁▁": 1529,
      "ough": 1530,
      "orld": 1531,
      "ood": 1532,
      "uch": 1533,
      "ative": 1534,
      "ger": 1535,
      "arent": 1536,
      "▁/*": 1537,
      "▁arg": 1538,
      "▁while": 1539,
      "23": 1540,
      "(this": 1541,
      "▁rec": 1542,
      "▁dif": 1543,
      "State": 1544,
      "▁spec": 1545,
      "ride": 1546,
      "_F": 1547,
      "▁look": 1548,
      "AM": 1549,
      "ility": 1550,
      "eter": 1551,
      "\n\n\n": 1552,
      "ayout": 1553,
      "--------------------------------": 1554,
      "ager": 1555,
      "▁could": 1556,
      "▁br": 1557,
      "ends": 1558,
      "ures": 1559,
      "▁know": 1560,
      "ets": 1561,
      "▁If": 1562,
      "▁Sh": 1563,
      ".w": 1564,
      "back": 1565,
      "▁ser": 1566,
      "▁+=": 1567,
      "▁fr": 1568,
      "());\n": 1569,
      "▁hand": 1570,
      "Ind": 1571,
      "ULL": 1572,
      "Im": 1573,
      "();\n\n": 1574,
      "▁most": 1575,
      "▁try": 1576,
      "▁now": 1577,
      "rough": 1578,
      ">\r\n": 1579,
      "ackage": 1580,
      "▁him": 1581,
      "._": 1582,
      "ify": 1583,
      "▁break": 1584,
      "▁);\n": 1585,
      "ren": 1586,
      "#define": 1587,
      "itt": 1588,
      "▁ap": 1589,
      "\tc": 1590,
      "(n": 1591,
      "▁You": 1592,
      ":\n\n": 1593,
      "-m": 1594,
      "▁every": 1595,
      "ustom": 1596,
      "lient": 1597,
      "ocument": 1598,
      "cription": 1599,
      "Error": 1600,
      "-b": 1601,
      "][": 1602,
      "99": 1603,
      "trans": 1604,
      "▁point": 1605,
      "▁std": 1606,
      "▁fil": 1607,
      "Time": 1608,
      "80": 1609,
      "▁mod": 1610,
      "▁->": 1611,
      "▁error": 1612,
      "ah": 1613,
      "▁text": 1614,
      "roller": 1615,
      "lose": 1616,
      "ql": 1617,
      "▁pol": 1618,
      "></": 1619,
      "▁show": 1620,
      "User": 1621,
      "ased": 1622,
      "▁{\n\n": 1623,
      "▁find": 1624,
      "ED": 1625,
      "span": 1626,
      "enu": 1627,
      "▁current": 1628,
      "▁used": 1629,
      "cept": 1630,
      "clud": 1631,
      "▁play": 1632,
      "▁log": 1633,
      "ution": 1634,
      "fl": 1635,
      "▁see": 1636,
      "indows": 1637,
      "▁help": 1638,
      "▁these": 1639,
      "▁pass": 1640,
      "▁down": 1641,
      "▁even": 1642,
      "ason": 1643,
      "uild": 1644,
      "from": 1645,
      "(d": 1646,
      "▁bl": 1647,
      "label": 1648,
      "else": 1649,
      "▁(!": 1650,
      "ized": 1651,
      "(),": 1652,
      "▁ob": 1653,
      "▁item": 1654,
      "ump": 1655,
      "UR": 1656,
      "orn": 1657,
      "▁don": 1658,
      "Se": 1659,
      "man": 1660,
      "27": 1661,
      "ample": 1662,
      "tn": 1663,
      "================": 1664,
      "He": 1665,
      "gram": 1666,
      "▁did": 1667,
      "wn": 1668,
      "_h": 1669,
      "iver": 1670,
      "▁sm": 1671,
      "▁through": 1672,
      "▁An": 1673,
      "che": 1674,
      "▁inv": 1675,
      "ouse": 1676,
      "▁es": 1677,
      "▁New": 1678,
      "export": 1679,
      "mary": 1680,
      "uto": 1681,
      "ler": 1682,
      "▁last": 1683,
      "▁event": 1684,
      "try": 1685,
      "ily": 1686,
      "igned": 1687,
      "ines": 1688,
      "ollow": 1689,
      "icense": 1690,
      "sole": 1691,
      "lear": 1692,
      "(int": 1693,
      "▁again": 1694,
      "▁high": 1695,
      "html": 1696,
      "Index": 1697,
      "uthor": 1698,
      "▁/**\n": 1699,
      "▁line": 1700,
      "Event": 1701,
      "_D": 1702,
      "▁does": 1703,
      "itial": 1704,
      "▁cr": 1705,
      "ars": 1706,
      "28": 1707,
      "▁tem": 1708,
      "cause": 1709,
      "face": 1710,
      "▁`": 1711,
      "_A": 1712,
      "Button": 1713,
      "ature": 1714,
      "ected": 1715,
      "ES": 1716,
      "ister": 1717,
      "\t\n": 1718,
      "▁before": 1719,
      "ale": 1720,
      "other": 1721,
      "▁because": 1722,
      "roid": 1723,
      "▁ed": 1724,
      "ik": 1725,
      "reg": 1726,
      "▁De": 1727,
      "▁dist": 1728,
      "},\n": 1729,
      "▁state": 1730,
      "▁cons": 1731,
      "rint": 1732,
      "att": 1733,
      "▁here": 1734,
      "ined": 1735,
      "▁final": 1736,
      "▁\"\"": 1737,
      "Key": 1738,
      "LO": 1739,
      "▁del": 1740,
      "pty": 1741,
      "thing": 1742,
      "26": 1743,
      "▁And": 1744,
      "▁run": 1745,
      "▁X": 1746,
      "ym": 1747,
      ".app": 1748,
      "▁very": 1749,
      "ces": 1750,
      "_N": 1751,
      "ared": 1752,
      "ward": 1753,
      "list": 1754,
      "ited": 1755,
      "olog": 1756,
      "itch": 1757,
      "Box": 1758,
      "ife": 1759,
      "33": 1760,
      "▁ac": 1761,
      "▁model": 1762,
      "▁mon": 1763,
      "▁way": 1764,
      "lete": 1765,
      "▁call": 1766,
      "▁att": 1767,
      "▁cal": 1768,
      "vert": 1769,
      "▁dec": 1770,
      "lease": 1771,
      "oun": 1772,
      "▁});\n": 1773,
      "fr": 1774,
      "formation": 1775,
      "etail": 1776,
      "▁num": 1777,
      "aj": 1778,
      "query": 1779,
      "▁well": 1780,
      "▁object": 1781,
      "▁As": 1782,
      "▁years": 1783,
      "Color": 1784,
      "IS": 1785,
      "▁default": 1786,
      "Wh": 1787,
      "▁ins": 1788,
      "aint": 1789,
      "▁java": 1790,
      "▁sim": 1791,
      "▁Ar": 1792,
      "mon": 1793,
      "til": 1794,
      "();\r\n": 1795,
      "):": 1796,
      "Set": 1797,
      "29": 1798,
      "atter": 1799,
      "▁view": 1800,
      "▁pres": 1801,
      "array": 1802,
      "We": 1803,
      "At": 1804,
      "▁bel": 1805,
      "▁many": 1806,
      "21": 1807,
      "Man": 1808,
      "ender": 1809,
      "▁being": 1810,
      "▁good": 1811,
      "\t\t\t\t\t\t": 1812,
      "ational": 1813,
      "ware": 1814,
      ".log": 1815,
      "{\r\n": 1816,
      "▁using": 1817,
      "_B": 1818,
      "▁:=": 1819,
      "_w": 1820,
      "ists": 1821,
      "lish": 1822,
      "▁stud": 1823,
      "▁Al": 1824,
      "▁gu": 1825,
      "config": 1826,
      "uring": 1827,
      "time": 1828,
      "oken": 1829,
      "amespace": 1830,
      "▁request": 1831,
      "▁child": 1832,
      "lob": 1833,
      "▁param": 1834,
      "▁}\r\n": 1835,
      "01": 1836,
      "▁echo": 1837,
      "function": 1838,
      "********************************": 1839,
      "ps": 1840,
      "Element": 1841,
      "alk": 1842,
      "lication": 1843,
      "by": 1844,
      "Size": 1845,
      "rawing": 1846,
      "▁person": 1847,
      "▁▁▁▁▁▁▁▁▁▁▁▁▁▁▁▁▁": 1848,
      "\\n": 1849,
      "object": 1850,
      "ince": 1851,
      "En": 1852,
      "File": 1853,
      "uf": 1854,
      "ffect": 1855,
      "AC": 1856,
      "▁style": 1857,
      "summary": 1858,
      "▁que": 1859,
      "_r": 1860,
      "▁($": 1861,
      "Model": 1862,
      "ident": 1863,
      "▁method": 1864,
      "IL": 1865,
      "ott": 1866,
      "less": 1867,
      "ING": 1868,
      "▁()": 1869,
      "▁expect": 1870,
      "ync": 1871,
      "package": 1872,
      "35": 1873,
      "urs": 1874,
      "▁prot": 1875,
      "./": 1876,
      "pre": 1877,
      "▁)\n": 1878,
      "ma": 1879,
      "▁sur": 1880,
      "▁found": 1881,
      "Info": 1882,
      "par": 1883,
      "imes": 1884,
      ".e": 1885,
      "ains": 1886,
      "▁post": 1887,
      "-d": 1888,
      "45": 1889,
      "olean": 1890,
      "▁sl": 1891,
      "PE": 1892,
      "▁such": 1893,
      "select": 1894,
      "ainer": 1895,
      "▁think": 1896,
      "▁differ": 1897,
      ".r": 1898,
      "/**\n": 1899,
      "FF": 1900,
      "ool": 1901,
      "plate": 1902,
      "qual": 1903,
      "▁For": 1904,
      "▁much": 1905,
      "uc": 1906,
      "(new": 1907,
      "odule": 1908,
      "▁som": 1909,
      "▁http": 1910,
      "▁List": 1911,
      "▁count": 1912,
      "▁inst": 1913,
      "char": 1914,
      "mit": 1915,
      ".id": 1916,
      "aking": 1917,
      "▁gener": 1918,
      "px": 1919,
      "vice": 1920,
      "37": 1921,
      "_data": 1922,
      "▁NULL": 1923,
      "}\r\n": 1924,
      "idd": 1925,
      "▁med": 1926,
      "org": 1927,
      "ider": 1928,
      "ache": 1929,
      "work": 1930,
      "▁check": 1931,
      "ween": 1932,
      "▁((": 1933,
      "the": 1934,
      "ants": 1935,
      "><": 1936,
      ".B": 1937,
      "-c": 1938,
      "▁open": 1939,
      "▁est": 1940,
      "▁▁▁▁▁▁▁▁\n": 1941,
      "▁next": 1942,
      "IM": 1943,
      "OT": 1944,
      "▁follow": 1945,
      "content": 1946,
      "▁▁▁▁▁▁▁▁▁▁▁▁": 1947,
      "▁includ": 1948,
      "HE": 1949,
      "▁Res": 1950,
      "▁href": 1951,
      "▁car": 1952,
      "ypes": 1953,
      "image": 1954,
      "Un": 1955,
      "▁bool": 1956,
      "AD": 1957,
      "▁game": 1958,
      ".Form": 1959,
      "rows": 1960,
      "*/": 1961,
      "velop": 1962,
      ".Drawing": 1963,
      "▁path": 1964,
      "ision": 1965,
      "▁each": 1966,
      "▁Pl": 1967,
      "_type": 1968,
      "Path": 1969,
      "nection": 1970,
      "▁av": 1971,
      "').": 1972,
      "▁support": 1973,
      "ENT": 1974,
      "rem": 1975,
      "\").": 1976,
      "▁own": 1977,
      "▁cor": 1978,
      "count": 1979,
      "miss": 1980,
      "ually": 1981,
      "▁mem": 1982,
      "std": 1983,
      "ience": 1984,
      "search": 1985,
      "\"\n\n": 1986,
      "Form": 1987,
      "▁sex": 1988,
      "ename": 1989,
      "▁sign": 1990,
      "▁et": 1991,
      "▁▁▁▁▁▁▁▁▁▁": 1992,
      "','": 1993,
      "▁App": 1994,
      "▁those": 1995,
      "off": 1996,
      "▁err": 1997,
      "▁system": 1998,
      "▁best": 1999,
      "code": 2000,
      "▁same": 2001,
      "▁di": 2002,
      "uss": 2003,
      "▁create": 2004,
      "ather": 2005,
      "Array": 2006,
      ".in": 2007,
      "fe": 2008,
      "Service": 2009,
      "UN": 2010,
      "ats": 2011,
      "▁Z": 2012,
      "alth": 2013,
      "▁made": 2014,
      "true": 2015,
      "AB": 2016,
      "▁mark": 2017,
      "rid": 2018,
      "ified": 2019,
      ",\r\n": 2020,
      "yn": 2021,
      "press": 2022,
      "▁group": 2023,
      "▁fin": 2024,
      "▁License": 2025,
      "Field": 2026,
      "eger": 2027,
      "▁world": 2028,
      "iness": 2029,
      "ty": 2030,
      "▁process": 2031,
      "(b": 2032,
      "▁cre": 2033,
      "arn": 2034,
      "ives": 2035,
      "▁main": 2036,
      "ideo": 2037,
      "36": 2038,
      "_g": 2039,
      "AG": 2040,
      "valid": 2041,
      "img": 2042,
      "PI": 2043,
      "▁color": 2044,
      "▁report": 2045,
      "▁take": 2046,
      "rib": 2047,
      "OM": 2048,
      "▁day": 2049,
      "Request": 2050,
      "▁sk": 2051,
      "bers": 2052,
      "\ts": 2053,
      ".Add": 2054,
      "oot": 2055,
      "Image": 2056,
      "▁comple": 2057,
      "ollection": 2058,
      "▁top": 2059,
      "▁free": 2060,
      "AS": 2061,
      "De": 2062,
      "▁On": 2063,
      "IG": 2064,
      "90": 2065,
      "eta": 2066,
      "Date": 2067,
      "▁action": 2068,
      "34": 2069,
      "Over": 2070,
      "itor": 2071,
      "▁▁▁▁▁▁▁▁▁▁▁▁▁▁▁▁▁▁▁▁▁▁▁▁▁▁▁▁▁▁▁▁▁▁▁": 2072,
      "not": 2073,
      "▁index": 2074,
      "her": 2075,
      "icon": 2076,
      "On": 2077,
      ";\r\n\r\n": 2078,
      "ivity": 2079,
      "mand": 2080,
      ".Windows": 2081,
      "OL": 2082,
      "▁real": 2083,
      "▁max": 2084,
      "land": 2085,
      "....": 2086,
      "raph": 2087,
      "▁build": 2088,
      "leg": 2089,
      "assword": 2090,
      "?\n\n": 2091,
      "ook": 2092,
      "uck": 2093,
      "▁message": 2094,
      "test": 2095,
      "ivers": 2096,
      "38": 2097,
      "▁input": 2098,
      "▁art": 2099,
      "▁between": 2100,
      "Get": 2101,
      "enter": 2102,
      "ground": 2103,
      "ene": 2104,
      ".length": 2105,
      "Node": 2106,
      "(i": 2107,
      "Class": 2108,
      "for": 2109,
      "ten": 2110,
      "oin": 2111,
      "▁ke": 2112,
      "ui": 2113,
      "▁IN": 2114,
      "▁table": 2115,
      "sub": 2116,
      "▁Le": 2117,
      "▁head": 2118,
      "▁must": 2119,
      "////////////////": 2120,
      ".util": 2121,
      "Context": 2122,
      "▁order": 2123,
      "▁mov": 2124,
      "over": 2125,
      "▁contin": 2126,
      "▁say": 2127,
      "static": 2128,
      ".Text": 2129,
      "▁className": 2130,
      "pany": 2131,
      "▁ter": 2132,
      "head": 2133,
      "rg": 2134,
      "▁product": 2135,
      "This": 2136,
      "▁But": 2137,
      "70": 2138,
      "loy": 2139,
      "▁double": 2140,
      "sg": 2141,
      "▁place": 2142,
      ".x": 2143,
      "message": 2144,
      "▁information": 2145,
      "private": 2146,
      "▁oper": 2147,
      "ced": 2148,
      "db": 2149,
      "\"></": 2150,
      "Param": 2151,
      "icle": 2152,
      "▁week": 2153,
      "▁prop": 2154,
      "table": 2155,
      "idget": 2156,
      "place": 2157,
      "Prop": 2158,
      "▁All": 2159,
      "els": 2160,
      "box": 2161,
      ".\n\n\n\n": 2162,
      ".R": 2163,
      "▁To": 2164,
      "iter": 2165,
      "Sh": 2166,
      "uration": 2167,
      "older": 2168,
      "_list": 2169,
      "come": 2170,
      "▁sw": 2171,
      "ization": 2172,
      "\tfor": 2173,
      "bl": 2174,
      "▁program": 2175,
      "(e": 2176,
      "ape": 2177,
      "check": 2178,
      ".Forms": 2179,
      "▁und": 2180,
      "ategory": 2181,
      "75": 2182,
      "ags": 2183,
      "▁response": 2184,
      "US": 2185,
      "request": 2186,
      "▁struct": 2187,
      "escription": 2188,
      "▁code": 2189,
      "_H": 2190,
      "uffer": 2191,
      "▁without": 2192,
      "lobal": 2193,
      "Manager": 2194,
      "ilter": 2195,
      "PO": 2196,
      "\tthis": 2197,
      "option": 2198,
      "▁sol": 2199,
      "▁===": 2200,
      "akes": 2201,
      "Controller": 2202,
      "44": 2203,
      "Message": 2204,
      "▁ref": 2205,
      "ever": 2206,
      "▁So": 2207,
      "aining": 2208,
      ".append": 2209,
      "▁still": 2210,
      "▁provid": 2211,
      "▁assert": 2212,
      "med": 2213,
      "▁cap": 2214,
      "usiness": 2215,
      "▁rep": 2216,
      "tings": 2217,
      "ved": 2218,
      ".N": 2219,
      "api": 2220,
      "OD": 2221,
      "▁field": 2222,
      "iven": 2223,
      "oto": 2224,
      "col": 2225,
      "(x": 2226,
      "ght": 2227,
      "Result": 2228,
      "Code": 2229,
      ".is": 2230,
      "link": 2231,
      "▁cour": 2232,
      "An": 2233,
      "▁team": 2234,
      "\tint": 2235,
      "ift": 2236,
      "55": 2237,
      "▁second": 2238,
      "▁going": 2239,
      "▁range": 2240,
      "_E": 2241,
      "ness": 2242,
      "39": 2243,
      "▁fam": 2244,
      "▁nil": 2245,
      "▁Cont": 2246,
      "ailable": 2247,
      "utes": 2248,
      "atab": 2249,
      "▁fact": 2250,
      "▁vis": 2251,
      "(&": 2252,
      "▁AN": 2253,
      "31": 2254,
      "Al": 2255,
      "title": 2256,
      "▁android": 2257,
      "CE": 2258,
      "\\\"": 2259,
      "irt": 2260,
      "▁writ": 2261,
      "\tm": 2262,
      "ftware": 2263,
      "ond": 2264,
      "▁ret": 2265,
      "osition": 2266,
      "▁home": 2267,
      "▁left": 2268,
      "args": 2269,
      "meric": 2270,
      "48": 2271,
      "▁direct": 2272,
      "oci": 2273,
      "Pl": 2274,
      "As": 2275,
      "ret": 2276,
      "ado": 2277,
      "Of": 2278,
      "chn": 2279,
      "▁Get": 2280,
      "ee": 2281,
      "ross": 2282,
      "();": 2283,
      "____": 2284,
      ".ph": 2285,
      "It": 2286,
      "oute": 2287,
      "▁exper": 2288,
      "chool": 2289,
      "www": 2290,
      "},": 2291,
      "▁allow": 2292,
      "())": 2293,
      "size": 2294,
      "ism": 2295,
      "ai": 2296,
      "tract": 2297,
      "ane": 2298,
      "...\n\n": 2299,
      "context": 2300,
      "▁beg": 2301,
      "CH": 2302,
      "▁page": 2303,
      "hip": 2304,
      "no": 2305,
      "core": 2306,
      "sp": 2307,
      "▁different": 2308,
      "iable": 2309,
      "▁Me": 2310,
      "_IN": 2311,
      "button": 2312,
      "▁Is": 2313,
      "ervices": 2314,
      "▁ca": 2315,
      "▁around": 2316,
      "App": 2317,
      "ration": 2318,
      "▁rece": 2319,
      "▁really": 2320,
      "▁image": 2321,
      "▁target": 2322,
      "▁dep": 2323,
      "opyright": 2324,
      "tra": 2325,
      "ingle": 2326,
      "ital": 2327,
      "Layout": 2328,
      "▁both": 2329,
      "Override": 2330,
      "arm": 2331,
      "=>": 2332,
      "aterial": 2333,
      "iled": 2334,
      "▁put": 2335,
      "Qu": 2336,
      "ung": 2337,
      "map": 2338,
      "\t\t\t\t\t\t\t\t": 2339,
      "▁level": 2340,
      "Component": 2341,
      "book": 2342,
      "creen": 2343,
      "_RE": 2344,
      "▁config": 2345,
      "Or": 2346,
      ".data": 2347,
      "▁document": 2348,
      "\",\"": 2349,
      "tribute": 2350,
      "ux": 2351,
      "Log": 2352,
      "ference": 2353,
      "post": 2354,
      "_e": 2355,
      "▁local": 2356,
      "andom": 2357,
      "assert": 2358,
      "Val": 2359,
      "lected": 2360,
      "ina": 2361,
      "atabase": 2362,
      "Add": 2363,
      "▁content": 2364,
      ".print": 2365,
      "signed": 2366,
      "ric": 2367,
      ".\"\n\n": 2368,
      "▁fa": 2369,
      "!\n\n": 2370,
      "-f": 2371,
      "ived": 2372,
      "▁quest": 2373,
      ".ex": 2374,
      "▁float": 2375,
      "▁develop": 2376,
      "Map": 2377,
      "ading": 2378,
      "▁poss": 2379,
      "UE": 2380,
      "namespace": 2381,
      "_O": 2382,
      "\tb": 2383,
      ".Get": 2384,
      ">(": 2385,
      "json": 2386,
      "etails": 2387,
      "66": 2388,
      "▁too": 2389,
      "▁extends": 2390,
      "▁None": 2391,
      "▁fore": 2392,
      "(String": 2393,
      "format": 2394,
      "▁great": 2395,
      "inter": 2396,
      "cale": 2397,
      "ron": 2398,
      "iving": 2399,
      "Ent": 2400,
      "ency": 2401,
      "xt": 2402,
      "oy": 2403,
      "05": 2404,
      "▁month": 2405,
      "▁happ": 2406,
      "▁super": 2407,
      "bar": 2408,
      "default": 2409,
      "_de": 2410,
      "ords": 2411,
      "ln": 2412,
      "({\n": 2413,
      "▁Ind": 2414,
      "ases": 2415,
      "▁title": 2416,
      "▁context": 2417,
      "08": 2418,
      "oh": 2419,
      "-p": 2420,
      "Em": 2421,
      "▁met": 2422,
      "Test": 2423,
      "▁life": 2424,
      "_v": 2425,
      "▁US": 2426,
      "UI": 2427,
      "ocation": 2428,
      "md": 2429,
      "▁[\n": 2430,
      "▁]": 2431,
      "sw": 2432,
      "▁incre": 2433,
      "script": 2434,
      "ential": 2435,
      "ways": 2436,
      ".de": 2437,
      "▁src": 2438,
      "▁catch": 2439,
      "▁Americ": 2440,
      "//\n": 2441,
      "▁▁▁▁▁▁▁▁▁▁▁▁▁▁": 2442,
      "▁pay": 2443,
      "plit": 2444,
      "▁coun": 2445,
      "obj": 2446,
      ".php": 2447,
      "▁change": 2448,
      "ething": 2449,
      "'re": 2450,
      "aster": 2451,
      "los": 2452,
      "lation": 2453,
      "▁▁\n": 2454,
      "Le": 2455,
      "({": 2456,
      "ready": 2457,
      "▁No": 2458,
      "▁position": 2459,
      "▁old": 2460,
      "▁book": 2461,
      "abled": 2462,
      "bug": 2463,
      "202": 2464,
      "Hand": 2465,
      "};\n\n": 2466,
      "isplay": 2467,
      "aving": 2468,
      "04": 2469,
      "▁gover": 2470,
      "▁version": 2471,
      "System": 2472,
      "nect": 2473,
      "response": 2474,
      "Style": 2475,
      "Up": 2476,
      "angu": 2477,
      "▁three": 2478,
      "init": 2479,
      "ero": 2480,
      "▁law": 2481,
      "endif": 2482,
      "▁base": 2483,
      "email": 2484,
      "(l": 2485,
      "_V": 2486,
      "▁conf": 2487,
      "ATE": 2488,
      "▁during": 2489,
      "tes": 2490,
      "▁console": 2491,
      "▁Pr": 2492,
      "▁spe": 2493,
      "ves": 2494,
      "65": 2495,
      "path": 2496,
      "ialog": 2497,
      "dition": 2498,
      "_to": 2499,
      "ards": 2500,
      "▁against": 2501,
      "etwork": 2502,
      "▁Ph": 2503,
      "_L": 2504,
      "cur": 2505,
      "imit": 2506,
      "With": 2507,
      "▁power": 2508,
      "ium": 2509,
      "';\n\n": 2510,
      "▁wom": 2511,
      "left": 2512,
      "ources": 2513,
      "atri": 2514,
      "▁Im": 2515,
      "▁Man": 2516,
      "orth": 2517,
      "${": 2518,
      "88": 2519,
      "quals": 2520,
      "ese": 2521,
      "_size": 2522,
      "▁iss": 2523,
      "otal": 2524,
      "-g": 2525,
      "ique": 2526,
      "rame": 2527,
      "▁width": 2528,
      "erg": 2529,
      ")(": 2530,
      "ittle": 2531,
      "TR": 2532,
      "▁They": 2533,
      "ences": 2534,
      "02": 2535,
      "rl": 2536,
      "ons": 2537,
      "▁label": 2538,
      ".y": 2539,
      "-t": 2540,
      "update": 2541,
      "anel": 2542,
      "sc": 2543,
      ".to": 2544,
      "▁project": 2545,
      "▁element": 2546,
      "▁success": 2547,
      "\t\t\n": 2548,
      ".sh": 2549,
      "ram": 2550,
      "ched": 2551,
      "())\n": 2552,
      "▁(\n": 2553,
      "▁date": 2554,
      "▁tot": 2555,
      "_ST": 2556,
      "All": 2557,
      "ification": 2558,
      "\tvar": 2559,
      "▁tri": 2560,
      "chem": 2561,
      "my": 2562,
      "▁big": 2563,
      "▁Ad": 2564,
      "▁At": 2565,
      "ots": 2566,
      "num": 2567,
      "Act": 2568,
      "▁map": 2569,
      "era": 2570,
      "cope": 2571,
      ".$": 2572,
      "▁pop": 2573,
      "▁few": 2574,
      "▁len": 2575,
      "uid": 2576,
      "eters": 2577,
      "ules": 2578,
      "source": 2579,
      "https": 2580,
      "▁dem": 2581,
      "▁ear": 2582,
      "################": 2583,
      "▁match": 2584,
      "ories": 2585,
      "49": 2586,
      "aces": 2587,
      "▁Cl": 2588,
      "▁node": 2589,
      "78": 2590,
      "irc": 2591,
      "local": 2592,
      "unity": 2593,
      "};\n": 2594,
      "▁another": 2595,
      "<<": 2596,
      "ogle": 2597,
      "▁sit": 2598,
      "ework": 2599,
      "TE": 2600,
      ".I": 2601,
      "NS": 2602,
      "ology": 2603,
      "ought": 2604,
      ".Cont": 2605,
      ">>": 2606,
      "▁care": 2607,
      "state": 2608,
      "\tprivate": 2609,
      "▁effect": 2610,
      "++)": 2611,
      "_file": 2612,
      "ending": 2613,
      "Line": 2614,
      "For": 2615,
      "ior": 2616,
      "▁Sc": 2617,
      "▁fun": 2618,
      ".Size": 2619,
      "\telse": 2620,
      "])": 2621,
      "start": 2622,
      "vious": 2623,
      "▁},": 2624,
      "ours": 2625,
      "▁leg": 2626,
      "▁service": 2627,
      "▁since": 2628,
      "iron": 2629,
      "Label": 2630,
      "▁non": 2631,
      "▁los": 2632,
      "iction": 2633,
      "▁full": 2634,
      "acter": 2635,
      "board": 2636,
      "gress": 2637,
      "▁turn": 2638,
      "ither": 2639,
      "09": 2640,
      ".size": 2641,
      "▁body": 2642,
      "resh": 2643,
      "eturn": 2644,
      "199": 2645,
      "(_": 2646,
      "yles": 2647,
      "ormal": 2648,
      "pi": 2649,
      "▁something": 2650,
      "!--": 2651,
      "uint": 2652,
      "▁produ": 2653,
      "▁stand": 2654,
      "▁proble": 2655,
      "▁available": 2656,
      "mt": 2657,
      "▁Bl": 2658,
      "▁...": 2659,
      "▁block": 2660,
      "Input": 2661,
      "▁keep": 2662,
      "Count": 2663,
      "open": 2664,
      "▁['": 2665,
      "▁throw": 2666,
      "uilder": 2667,
      "Action": 2668,
      "▁things": 2669,
      "True": 2670,
      "▁url": 2671,
      "▁Bo": 2672,
      "printf": 2673,
      "▁red": 2674,
      "js": 2675,
      ".create": 2676,
      "▁Or": 2677,
      "Status": 2678,
      "Instance": 2679,
      "▁control": 2680,
      "▁come": 2681,
      "▁custom": 2682,
      "location": 2683,
      "07": 2684,
      "model": 2685,
      "▁\r\n": 2686,
      "▁source": 2687,
      "▁eas": 2688,
      ".out": 2689,
      "]\n\n": 2690,
      "oney": 2691,
      "▁await": 2692,
      "▁partic": 2693,
      "AP": 2694,
      "ublish": 2695,
      "odes": 2696,
      "_pro": 2697,
      "ply": 2698,
      "riter": 2699,
      "▁prov": 2700,
      "▁mill": 2701,
      "HT": 2702,
      "])\n": 2703,
      "▁chang": 2704,
      "▁ask": 2705,
      "▁▁▁▁▁▁▁▁▁▁▁▁▁▁▁▁▁▁▁▁▁": 2706,
      "▁output": 2707,
      "▁email": 2708,
      "68": 2709,
      ".push": 2710,
      "▁}\r\n\r\n": 2711,
      "ination": 2712,
      "47": 2713,
      "atrix": 2714,
      "Table": 2715,
      "uccess": 2716,
      "]);\n": 2717,
      "▁▁▁▁▁▁▁▁▁▁▁▁▁▁▁▁▁▁▁▁▁▁▁▁▁▁▁▁▁▁▁▁▁▁▁▁▁▁▁": 2718,
      "▁disc": 2719,
      "([": 2720,
      "▁business": 2721,
      "height": 2722,
      ".html": 2723,
      "ta": 2724,
      "field": 2725,
      "▁required": 2726,
      "_R": 2727,
      "▁govern": 2728,
      "}\r\n\r\n": 2729,
      "lex": 2730,
      "500": 2731,
      ".,": 2732,
      "▁Set": 2733,
      "urch": 2734,
      "///": 2735,
      "ts": 2736,
      "af": 2737,
      "▁might": 2738,
      "istory": 2739,
      "Str": 2740,
      "▁never": 2741,
      "Response": 2742,
      "arse": 2743,
      "ada": 2744,
      "▁How": 2745,
      "▁*)": 2746,
      "▁;": 2747,
      "▁hard": 2748,
      "Ad": 2749,
      "▁intern": 2750,
      "used": 2751,
      "(data": 2752,
      "mod": 2753,
      "annel": 2754,
      "▁np": 2755,
      "ugg": 2756,
      "▁/>\n": 2757,
      "▁called": 2758,
      "body": 2759,
      "▁cho": 2760,
      "(r": 2761,
      "_set": 2762,
      "ird": 2763,
      "▁>=": 2764,
      "▁};\n": 2765,
      "▁options": 2766,
      "▁Gener": 2767,
      "▁height": 2768,
      "Point": 2769,
      "You": 2770,
      "ety": 2771,
      "Click": 2772,
      "▁small": 2773,
      "▁ide": 2774,
      "▁access": 2775,
      "anguage": 2776,
      "▁protected": 2777,
      "▁job": 2778,
      "▁There": 2779,
      "Def": 2780,
      "▁address": 2781,
      "▁uint": 2782,
      "Not": 2783,
      "oo": 2784,
      "aps": 2785,
      "<div": 2786,
      "ained": 2787,
      "atur": 2788,
      "▁sum": 2789,
      "-w": 2790,
      "▁Date": 2791,
      "▁little": 2792,
      "▁fri": 2793,
      "YPE": 2794,
      "▁port": 2795,
      "eh": 2796,
      "pring": 2797,
      "_path": 2798,
      "▁status": 2799,
      "06": 2800,
      "aim": 2801,
      "bool": 2802,
      "▁appe": 2803,
      "▁os": 2804,
      ".name": 2805,
      "ension": 2806,
      "_G": 2807,
      "▁update": 2808,
      "Config": 2809,
      "aff": 2810,
      "ERR": 2811,
      "▁<=": 2812,
      "ately": 2813,
      "#if": 2814,
      "uction": 2815,
      "95": 2816,
      "▁Te": 2817,
      "▁link": 2818,
      "▁User": 2819,
      ".find": 2820,
      ".org": 2821,
      "me": 2822,
      "▁given": 2823,
      "Out": 2824,
      "#endif": 2825,
      "▁better": 2826,
      "Page": 2827,
      "▁feel": 2828,
      "enn": 2829,
      "ML": 2830,
      "▁already": 2831,
      "▁including": 2832,
      "oogle": 2833,
      "ru": 2834,
      "ically": 2835,
      "prop": 2836,
      "lean": 2837,
      "outer": 2838,
      "▁always": 2839,
      "ording": 2840,
      "If": 2841,
      "orage": 2842,
      "▁parent": 2843,
      "vis": 2844,
      "\t\t\t\t\t\t\t": 2845,
      "▁got": 2846,
      "stand": 2847,
      "▁less": 2848,
      "/s": 2849,
      "▁Ass": 2850,
      "apt": 2851,
      "ired": 2852,
      "▁Add": 2853,
      "▁account": 2854,
      "ploy": 2855,
      "▁der": 2856,
      "resent": 2857,
      "▁lot": 2858,
      "▁valid": 2859,
      "\td": 2860,
      "▁bit": 2861,
      "ponents": 2862,
      "▁following": 2863,
      "_ex": 2864,
      "SON": 2865,
      "▁sure": 2866,
      "ocial": 2867,
      "▁prom": 2868,
      "erties": 2869,
      "header": 2870,
      ".pro": 2871,
      "▁boolean": 2872,
      "▁search": 2873,
      "ken": 2874,
      "▁orig": 2875,
      "▁er": 2876,
      "Ed": 2877,
      "EM": 2878,
      "aut": 2879,
      "ling": 2880,
      "ality": 2881,
      "ById": 2882,
      "bed": 2883,
      "\tcase": 2884,
      "46": 2885,
      "ether": 2886,
      "posit": 2887,
      "▁invest": 2888,
      "▁OR": 2889,
      "▁says": 2890,
      "mission": 2891,
      "AME": 2892,
      "▁temp": 2893,
      "oad": 2894,
      "▁rest": 2895,
      "info": 2896,
      "▁interest": 2897,
      "Arg": 2898,
      "▁perform": 2899,
      "pons": 2900,
      "▁View": 2901,
      "▁ver": 2902,
      "lib": 2903,
      "(const": 2904,
      "Util": 2905,
      "Listener": 2906,
      "arge": 2907,
      "77": 2908,
      "▁mult": 2909,
      "▁die": 2910,
      "▁site": 2911,
      "../../": 2912,
      "EL": 2913,
      "▁values": 2914,
      "▁})\n": 2915,
      "pen": 2916,
      "No": 2917,
      "icro": 2918,
      "▁beh": 2919,
      "▁'./": 2920,
      "acy": 2921,
      "rec": 2922,
      "()->": 2923,
      "\t▁▁▁": 2924,
      "\"))": 2925,
      "Content": 2926,
      "_W": 2927,
      "plement": 2928,
      "▁won": 2929,
      "▁video": 2930,
      "adi": 2931,
      "point": 2932,
      "%%": 2933,
      "03": 2934,
      "▁gl": 2935,
      "erved": 2936,
      "viron": 2937,
      "IF": 2938,
      "uted": 2939,
      "'m": 2940,
      "▁cert": 2941,
      "▁prof": 2942,
      "▁cell": 2943,
      "ari": 2944,
      "▁player": 2945,
      "ais": 2946,
      "▁cost": 2947,
      "▁hum": 2948,
      "(R": 2949,
      "▁offic": 2950,
      "ks": 2951,
      ".text": 2952,
      "atures": 2953,
      "▁total": 2954,
      "▁*/\n\n": 2955,
      "ope": 2956,
      "▁stat": 2957,
      "UM": 2958,
      "▁load": 2959,
      "ights": 2960,
      "▁clear": 2961,
      "uro": 2962,
      "▁techn": 2963,
      "upport": 2964,
      "IR": 2965,
      "▁row": 2966,
      "▁seem": 2967,
      "▁q": 2968,
      "▁short": 2969,
      "▁Not": 2970,
      "ipp": 2971,
      "Group": 2972,
      "section": 2973,
      "max": 2974,
      "irl": 2975,
      "▁override": 2976,
      "▁company": 2977,
      "▁done": 2978,
      "\");\r\n": 2979,
      "▁gre": 2980,
      ".Re": 2981,
      "▁belie": 2982,
      "rist": 2983,
      "▁health": 2984,
      "ANT": 2985,
      "()\n\n": 2986,
      "▁Be": 2987,
      ".value": 2988,
      "▁Gr": 2989,
      "ottom": 2990,
      "▁args": 2991,
      "PT": 2992,
      "status": 2993,
      "func": 2994,
      "uments": 2995,
      "-h": 2996,
      "Number": 2997,
      ":\r\n": 2998,
      "▁Log": 2999,
      "erver": 3000,
      "▁),\n": 3001,
      "ament": 3002,
      "▁obj": 3003,
      "inc": 3004,
      "▁children": 3005,
      "icy": 3006,
      "IZ": 3007,
      "ands": 3008,
      "ably": 3009,
      "▁distrib": 3010,
      "▁cur": 3011,
      "erial": 3012,
      "▁days": 3013,
      "reated": 3014,
      "rect": 3015,
      "-l": 3016,
      "irm": 3017,
      "idden": 3018,
      "omb": 3019,
      "▁initial": 3020,
      ".js": 3021,
      "Query": 3022,
      "▁online": 3023,
      "imal": 3024,
      ".con": 3025,
      "au": 3026,
      "Url": 3027,
      "control": 3028,
      "irection": 3029,
      "▁instance": 3030,
      "ORT": 3031,
      "▁Fr": 3032,
      "where": 3033,
      "▁javax": 3034,
      "▁organ": 3035,
      "apter": 3036,
      "▁reason": 3037,
      "options": 3038,
      "59": 3039,
      "▁Mar": 3040,
      "(a": 3041,
      "▁within": 3042,
      "ODE": 3043,
      "_DE": 3044,
      "admin": 3045,
      "ended": 3046,
      "▁design": 3047,
      "▁Data": 3048,
      "une": 3049,
      "▁File": 3050,
      "root": 3051,
      "▁cent": 3052,
      "▁arr": 3053,
      "_add": 3054,
      "len": 3055,
      "page": 3056,
      ",'": 3057,
      "_str": 3058,
      "▁bro": 3059,
      "ability": 3060,
      "outh": 3061,
      "58": 3062,
      "/c": 3063,
      "pose": 3064,
      "irtual": 3065,
      "earch": 3066,
      "_url": 3067,
      "argin": 3068,
      "Http": 3069,
      "▁school": 3070,
      "ava": 3071,
      "▁consider": 3072,
      ".label": 3073,
      "▁Array": 3074,
      "42": 3075,
      "web": 3076,
      "opt": 3077,
      ".println": 3078,
      "ulation": 3079,
      "▁func": 3080,
      "PL": 3081,
      "▁\"\\": 3082,
      "▁Text": 3083,
      "actory": 3084,
      "(function": 3085,
      "null": 3086,
      "▁eng": 3087,
      "down": 3088,
      "▁include": 3089,
      "▁En": 3090,
      "▁Dr": 3091,
      "▁db": 3092,
      "!!": 3093,
      "side": 3094,
      "▁init": 3095,
      "quired": 3096,
      "▁She": 3097,
      "Column": 3098,
      "react": 3099,
      "▁ann": 3100,
      "▁stop": 3101,
      "▁later": 3102,
      "▁That": 3103,
      "ention": 3104,
      "df": 3105,
      "UG": 3106,
      "ILE": 3107,
      "▁client": 3108,
      "raft": 3109,
      "ffer": 3110,
      "POST": 3111,
      "elper": 3112,
      "▁love": 3113,
      "quote": 3114,
      "oud": 3115,
      "▁json": 3116,
      "▁able": 3117,
      "▁men": 3118,
      "AX": 3119,
      "▁Copyright": 3120,
      "avig": 3121,
      "req": 3122,
      "Client": 3123,
      "});\n": 3124,
      ".Com": 3125,
      "erc": 3126,
      "ilt": 3127,
      "pecial": 3128,
      "_com": 3129,
      "room": 3130,
      ".Name": 3131,
      "▁give": 3132,
      "amb": 3133,
      "ike": 3134,
      "▁condition": 3135,
      "client": 3136,
      "ators": 3137,
      ":\"": 3138,
      "▁copy": 3139,
      "uture": 3140,
      "iversity": 3141,
      "ernal": 3142,
      "{{": 3143,
      "▁Can": 3144,
      "ounc": 3145,
      "do": 3146,
      "▁occ": 3147,
      "▁appro": 3148,
      "thers": 3149,
      "ze": 3150,
      "▁either": 3151,
      "▁Fl": 3152,
      "▁important": 3153,
      "▁lead": 3154,
      "attr": 3155,
      "ART": 3156,
      "Equal": 3157,
      "▁da": 3158,
      "etch": 3159,
      "entity": 3160,
      "▁family": 3161,
      "adding": 3162,
      "▁option": 3163,
      "▁exist": 3164,
      "ica": 3165,
      "▁Object": 3166,
      "69": 3167,
      "'ve": 3168,
      "vers": 3169,
      "itional": 3170,
      "67": 3171,
      "output": 3172,
      "▁True": 3173,
      "▁OF": 3174,
      "_time": 3175,
      "▁offer": 3176,
      "▁});\n\n": 3177,
      "HER": 3178,
      "egin": 3179,
      "\"\"": 3180,
      "▁water": 3181,
      "▁che": 3182,
      "▁My": 3183,
      "ored": 3184,
      "▁step": 3185,
      "ances": 3186,
      "CK": 3187,
      "AY": 3188,
      "struction": 3189,
      "(C": 3190,
      "300": 3191,
      "ouch": 3192,
      "Stream": 3193,
      "active": 3194,
      "ama": 3195,
      "Entity": 3196,
      "product": 3197,
      "(){\n": 3198,
      "▁government": 3199,
      "▁ID": 3200,
      "ajor": 3201,
      "And": 3202,
      "▁display": 3203,
      "▁times": 3204,
      "▁four": 3205,
      "▁far": 3206,
      "▁present": 3207,
      "▁NS": 3208,
      "▁\\\n": 3209,
      "uest": 3210,
      "▁bas": 3211,
      "echo": 3212,
      "child": 3213,
      "ifier": 3214,
      "Handler": 3215,
      "▁lib": 3216,
      "Property": 3217,
      "translation": 3218,
      "▁room": 3219,
      "▁once": 3220,
      "▁[]": 3221,
      "center": 3222,
      "================================": 3223,
      "▁results": 3224,
      "▁continue": 3225,
      "▁talk": 3226,
      "_get": 3227,
      "▁grow": 3228,
      ".sw": 3229,
      "eb": 3230,
      "▁Public": 3231,
      "OP": 3232,
      "ecute": 3233,
      "ols": 3234,
      "▁**": 3235,
      "\");\n\n": 3236,
      "▁mass": 3237,
      "ured": 3238,
      ".class": 3239,
      "omic": 3240,
      "▁mean": 3241,
      "ips": 3242,
      "▁aut": 3243,
      ");\r\n\r\n": 3244,
      "▁until": 3245,
      "▁market": 3246,
      "▁area": 3247,
      "uit": 3248,
      "▁length": 3249,
      "▁With": 3250,
      "structor": 3251,
      "event": 3252,
      "\"><": 3253,
      "▁Sp": 3254,
      "IV": 3255,
      "▁mus": 3256,
      "iff": 3257,
      "▁kind": 3258,
      "author": 3259,
      "ounds": 3260,
      "mb": 3261,
      "_key": 3262,
      "41": 3263,
      "width": 3264,
      "pository": 3265,
      "▁light": 3266,
      "uk": 3267,
      "Row": 3268,
      "ohn": 3269,
      "alf": 3270,
      "vironment": 3271,
      "apper": 3272,
      "ollections": 3273,
      "▁side": 3274,
      "_info": 3275,
      "▁example": 3276,
      "imary": 3277,
      "▁wr": 3278,
      "▁camp": 3279,
      "cribe": 3280,
      "255": 3281,
      "\"/": 3282,
      "▁miss": 3283,
      "way": 3284,
      "▁based": 3285,
      "▁plan": 3286,
      "Vis": 3287,
      "omain": 3288,
      "unk": 3289,
      "▁away": 3290,
      "UP": 3291,
      "<T": 3292,
      "OS": 3293,
      "iod": 3294,
      "▁Mon": 3295,
      "▁lik": 3296,
      "ively": 3297,
      ".v": 3298,
      "imer": 3299,
      "izer": 3300,
      "Sub": 3301,
      "▁button": 3302,
      "▁Up": 3303,
      "▁experience": 3304,
      "CL": 3305,
      "▁render": 3306,
      "_value": 3307,
      "▁near": 3308,
      "URL": 3309,
      "alt": 3310,
      "▁country": 3311,
      "ibility": 3312,
      "57": 3313,
      "(),\n": 3314,
      "ead": 3315,
      "▁author": 3316,
      "▁specific": 3317,
      "base": 3318,
      "(name": 3319,
      "ones": 3320,
      "▁Do": 3321,
      "▁along": 3322,
      "year": 3323,
      "▁express": 3324,
      ".'": 3325,
      "env": 3326,
      "▁begin": 3327,
      "▁software": 3328,
      "▁imp": 3329,
      "▁win": 3330,
      "▁thing": 3331,
      "Trans": 3332,
      "▁THE": 3333,
      "▁<?": 3334,
      "▁why": 3335,
      "▁doesn": 3336,
      "ij": 3337,
      "ging": 3338,
      "\tg": 3339,
      "▁single": 3340,
      "offset": 3341,
      "arning": 3342,
      "ograph": 3343,
      "ley": 3344,
      "_count": 3345,
      "▁anal": 3346,
      "create": 3347,
      "/m": 3348,
      "▁Reg": 3349,
      "98": 3350,
      "unch": 3351,
      "=$": 3352,
      "isk": 3353,
      "▁rights": 3354,
      "(M": 3355,
      "▁\"\"\"\n": 3356,
      "aper": 3357,
      ".model": 3358,
      "▁po": 3359,
      "empty": 3360,
      "artment": 3361,
      "▁ant": 3362,
      "▁When": 3363,
      "▁women": 3364,
      "▁Ed": 3365,
      "▁season": 3366,
      "▁dest": 3367,
      "(h": 3368,
      "▁possible": 3369,
      "▁sever": 3370,
      "▁btn": 3371,
      "▁didn": 3372,
      "▁sent": 3373,
      "▁enc": 3374,
      "▁command": 3375,
      "▁],\n": 3376,
      "_x": 3377,
      "▁recent": 3378,
      "olution": 3379,
      "vector": 3380,
      "▁By": 3381,
      "▁May": 3382,
      "▁Act": 3383,
      "▁money": 3384,
      "INT": 3385,
      "bsite": 3386,
      "\tp": 3387,
      ".\r\n": 3388,
      "sl": 3389,
      "attern": 3390,
      "▁Class": 3391,
      "▁told": 3392,
      "udio": 3393,
      "current": 3394,
      "▁equ": 3395,
      "▁auto": 3396,
      "▁State": 3397,
      "da": 3398,
      "msg": 3399,
      "));\n\n": 3400,
      "▁working": 3401,
      "▁query": 3402,
      "▁Br": 3403,
      "▁window": 3404,
      "auth": 3405,
      "only": 3406,
      "\tt": 3407,
      "▁least": 3408,
      "agn": 3409,
      "▁expl": 3410,
      "itter": 3411,
      "aring": 3412,
      "▁column": 3413,
      "▁General": 3414,
      "\":\"": 3415,
      "eral": 3416,
      "rior": 3417,
      "▁record": 3418,
      "IB": 3419,
      "EX": 3420,
      "▁dat": 3421,
      "▁making": 3422,
      "ued": 3423,
      "▁Car": 3424,
      "emp": 3425,
      "\".": 3426,
      "▁Med": 3427,
      "▁close": 3428,
      "▁percent": 3429,
      "▁past": 3430,
      "(g": 3431,
      ":(": 3432,
      "▁write": 3433,
      "▁move": 3434,
      "▁pat": 3435,
      "Control": 3436,
      ".To": 3437,
      "▁vi": 3438,
      "*/\n": 3439,
      "inate": 3440,
      "'ll": 3441,
      "aged": 3442,
      "Null": 3443,
      "▁special": 3444,
      "IZE": 3445,
      "▁city": 3446,
      "/*\n": 3447,
      "▁Eng": 3448,
      "ixed": 3449,
      "inary": 3450,
      "py": 3451,
      "▁eff": 3452,
      "ario": 3453,
      "▁tell": 3454,
      "avor": 3455,
      "▁select": 3456,
      "level": 3457,
      "imum": 3458,
      "oper": 3459,
      "Builder": 3460,
      "IP": 3461,
      "'),\n": 3462,
      "esc": 3463,
      "▁font": 3464,
      "\";\n\n": 3465,
      "▁Am": 3466,
      "ished": 3467,
      "ills": 3468,
      "Inter": 3469,
      "OW": 3470,
      "▁course": 3471,
      "▁late": 3472,
      "iddle": 3473,
      "43": 3474,
      "▁amount": 3475,
      "▁async": 3476,
      "ino": 3477,
      "cul": 3478,
      "andle": 3479,
      "_user": 3480,
      "▁ben": 3481,
      "▁Cal": 3482,
      "▁$_": 3483,
      "▁Rep": 3484,
      "▁enough": 3485,
      "Token": 3486,
      ".user": 3487,
      "(j": 3488,
      "Sc": 3489,
      "Width": 3490,
      "now": 3491,
      "atform": 3492,
      "▁looking": 3493,
      "▁hold": 3494,
      "Module": 3495,
      "ITY": 3496,
      "vo": 3497,
      "ison": 3498,
      ".Data": 3499,
      "yc": 3500,
      "▁pot": 3501,
      "▁Trump": 3502,
      "idual": 3503,
      "ides": 3504,
      "rt": 3505,
      "▁property": 3506,
      "▁▁▁▁▁▁▁▁▁▁▁▁▁▁▁▁▁▁▁▁▁▁▁▁▁▁▁▁▁▁▁▁▁▁▁▁▁▁▁▁▁▁▁": 3507,
      "amework": 3508,
      "go": 3509,
      "▁low": 3510,
      "▁para": 3511,
      "▁price": 3512,
      "ury": 3513,
      "▁today": 3514,
      "roy": 3515,
      "▁'/": 3516,
      "▁polit": 3517,
      "▁''": 3518,
      "ymb": 3519,
      "Ph": 3520,
      "▁adv": 3521,
      "▁attack": 3522,
      "▁Ste": 3523,
      "ROM": 3524,
      "400": 3525,
      "ana": 3526,
      "▁means": 3527,
      "▁story": 3528,
      "ids": 3529,
      "aken": 3530,
      "▁meet": 3531,
      "▁mom": 3532,
      "▁?>": 3533,
      "▁den": 3534,
      "obile": 3535,
      "change": 3536,
      "▁▁▁▁▁▁▁▁▁▁▁▁\n": 3537,
      "ici": 3538,
      "na": 3539,
      "▁Form": 3540,
      "▁sort": 3541,
      "Select": 3542,
      "pare": 3543,
      "▁thought": 3544,
      "_con": 3545,
      "▁task": 3546,
      "ocus": 3547,
      "▁DE": 3548,
      "▁Min": 3549,
      "▁opt": 3550,
      "\tbreak": 3551,
      "umer": 3552,
      "KE": 3553,
      "then": 3554,
      "▁det": 3555,
      "▁Test": 3556,
      "ports": 3557,
      "▁review": 3558,
      "('/": 3559,
      "move": 3560,
      "▁switch": 3561,
      "ERT": 3562,
      "patch": 3563,
      "annot": 3564,
      "▁above": 3565,
      "itive": 3566,
      "56": 3567,
      "▁question": 3568,
      "▁Qu": 3569,
      "gle": 3570,
      "▁word": 3571,
      "▁provide": 3572,
      "▁Return": 3573,
      "▁research": 3574,
      "ustr": 3575,
      "▁publish": 3576,
      "chema": 3577,
      "}}": 3578,
      "▁CON": 3579,
      "-in": 3580,
      "allback": 3581,
      "▁cover": 3582,
      "\\\\": 3583,
      "color": 3584,
      "▁IS": 3585,
      "▁whether": 3586,
      "imate": 3587,
      "isc": 3588,
      "Bar": 3589,
      "▁div": 3590,
      "Be": 3591,
      "ourn": 3592,
      "▁having": 3593,
      "lem": 3594,
      "player": 3595,
      "abs": 3596,
      "amera": 3597,
      "ney": 3598,
      "▁exc": 3599,
      "gether": 3600,
      "plied": 3601,
      "ao": 3602,
      "[$": 3603,
      "▁++": 3604,
      "ipe": 3605,
      "show": 3606,
      "/d": 3607,
      "[:": 3608,
      "agement": 3609,
      "lev": 3610,
      "_ID": 3611,
      "97": 3612,
      "rary": 3613,
      "ades": 3614,
      "_se": 3615,
      "ause": 3616,
      "▁employ": 3617,
      "▁*/\r\n": 3618,
      "▁fre": 3619,
      "▁'@": 3620,
      "▁complet": 3621,
      "▁large": 3622,
      "ral": 3623,
      "\\x": 3624,
      "▁fac": 3625,
      "<String": 3626,
      "▁created": 3627,
      "uper": 3628,
      ".state": 3629,
      "▁host": 3630,
      "eneric": 3631,
      "/b": 3632,
      "(!": 3633,
      "while": 3634,
      "ias": 3635,
      "BUG": 3636,
      "▁);\n\n": 3637,
      "▁role": 3638,
      "Reg": 3639,
      "▁Color": 3640,
      "Start": 3641,
      "▁porn": 3642,
      "top": 3643,
      "▁web": 3644,
      "▁dev": 3645,
      "▁deal": 3646,
      "++)\n": 3647,
      "Integer": 3648,
      "position": 3649,
      ".on": 3650,
      "▁(\"": 3651,
      "▁problem": 3652,
      "sv": 3653,
      "▁press": 3654,
      "ABLE": 3655,
      "ATION": 3656,
      "▁See": 3657,
      "anch": 3658,
      "▁though": 3659,
      "leep": 3660,
      "▁<!--": 3661,
      "▁points": 3662,
      "▁▁▁▁▁▁▁▁▁▁▁▁▁▁▁▁▁▁▁▁▁▁▁▁▁": 3663,
      ".J": 3664,
      "▁::": 3665,
      "ptr": 3666,
      "DB": 3667,
      "++;\n": 3668,
      ".png": 3669,
      "node": 3670,
      "soft": 3671,
      "pond": 3672,
      "▁ever": 3673,
      "----------------------------------------------------------------": 3674,
      "Menu": 3675,
      "('#": 3676,
      "▁services": 3677,
      "pg": 3678,
      "})\n": 3679,
      "params": 3680,
      "▁actually": 3681,
      "▁\"/": 3682,
      "Empty": 3683,
      "Method": 3684,
      "▁ident": 3685,
      "unic": 3686,
      "▁million": 3687,
      "▁aff": 3688,
      "style": 3689,
      "▁conc": 3690,
      "ios": 3691,
      "ignment": 3692,
      "ULT": 3693,
      "Pr": 3694,
      "\";\r\n": 3695,
      "▁understand": 3696,
      "uary": 3697,
      "▁happen": 3698,
      "▁server": 3699,
      "▁Co": 3700,
      "SC": 3701,
      "▁les": 3702,
      "▁files": 3703,
      "Grid": 3704,
      "sql": 3705,
      "▁often": 3706,
      "▁info": 3707,
      "_tr": 3708,
      "src": 3709,
      "ony": 3710,
      "▁space": 3711,
      "umb": 3712,
      "▁password": 3713,
      "▁store": 3714,
      ",\n\n": 3715,
      "▁What": 3716,
      "ged": 3717,
      "▁False": 3718,
      "Us": 3719,
      "swer": 3720,
      "_index": 3721,
      "▁format": 3722,
      "most": 3723,
      "sm": 3724,
      "New": 3725,
      "▁details": 3726,
      "▁prob": 3727,
      "▁AND": 3728,
      "()\r\n": 3729,
      "ilar": 3730,
      "▁${": 3731,
      "rypt": 3732,
      ".Collections": 3733,
      "$this": 3734,
      "▁Free": 3735,
      "_of": 3736,
      "(false": 3737,
      "dated": 3738,
      "▁>>": 3739,
      "▁face": 3740,
      "CTION": 3741,
      "▁save": 3742,
      "▁typ": 3743,
      "dev": 3744,
      "(\"#": 3745,
      "AGE": 3746,
      "container": 3747,
      "edit": 3748,
      "QL": 3749,
      "▁items": 3750,
      "▁social": 3751,
      "ien": 3752,
      "▁React": 3753,
      ").\n\n": 3754,
      "▁mar": 3755,
      "▁redu": 3756,
      "▁RE": 3757,
      ".put": 3758,
      "▁major": 3759,
      "Cell": 3760,
      "next": 3761,
      "▁expected": 3762,
      "▁yet": 3763,
      "▁indiv": 3764,
      "tributes": 3765,
      "atis": 3766,
      "amed": 3767,
      "▁food": 3768,
      "Source": 3769,
      "(string": 3770,
      "▁+\n": 3771,
      "ites": 3772,
      "dr": 3773,
      "▁members": 3774,
      "▁comb": 3775,
      "items": 3776,
      "▁Per": 3777,
      "TH": 3778,
      "=True": 3779,
      "▁bar": 3780,
      "_SE": 3781,
      "comm": 3782,
      "(w": 3783,
      ")\n\n\n": 3784,
      "▁send": 3785,
      "▁inc": 3786,
      "unsigned": 3787,
      "FA": 3788,
      "▁params": 3789,
      "apping": 3790,
      "ros": 3791,
      "ugin": 3792,
      "fa": 3793,
      "▁connection": 3794,
      "▁};\n\n": 3795,
      "▁become": 3796,
      "Mode": 3797,
      "▁ev": 3798,
      "▁diff": 3799,
      "▁United": 3800,
      "Height": 3801,
      "fully": 3802,
      "images": 3803,
      "▁makes": 3804,
      "▁global": 3805,
      "▁contact": 3806,
      "':\n": 3807,
      "▁abs": 3808,
      "float": 3809,
      "▁except": 3810,
      "▁Pol": 3811,
      "Child": 3812,
      "typ": 3813,
      "▁certain": 3814,
      "OUT": 3815,
      "▁impro": 3816,
      "iles": 3817,
      "▁-->\n": 3818,
      "▁Part": 3819,
      "values": 3820,
      "oss": 3821,
      "/**": 3822,
      "ilit": 3823,
      "▁Event": 3824,
      "curity": 3825,
      "ster": 3826,
      "▁character": 3827,
      "198": 3828,
      "▁news": 3829,
      "▁\",": 3830,
      "▁device": 3831,
      "cel": 3832,
      "login": 3833,
      "heet": 3834,
      "Default": 3835,
      "@\"": 3836,
      "\t▁": 3837,
      "click": 3838,
      "(value": 3839,
      "▁Ab": 3840,
      "▁previous": 3841,
      "ERROR": 3842,
      "ocal": 3843,
      "▁material": 3844,
      "▁below": 3845,
      "▁Christ": 3846,
      "▁media": 3847,
      "cover": 3848,
      "▁UI": 3849,
      "▁fail": 3850,
      "▁black": 3851,
      "▁component": 3852,
      "▁American": 3853,
      "▁added": 3854,
      "▁buy": 3855,
      "stit": 3856,
      "▁came": 3857,
      "▁delete": 3858,
      "property": 3859,
      "oding": 3860,
      "▁card": 3861,
      "rops": 3862,
      "▁https": 3863,
      "▁root": 3864,
      "▁handle": 3865,
      "CC": 3866,
      "Back": 3867,
      "emplate": 3868,
      "▁getting": 3869,
      "_by": 3870,
      "mail": 3871,
      "_sh": 3872,
      ".assert": 3873,
      "▁Dec": 3874,
      "(true": 3875,
      "▁comput": 3876,
      "▁claim": 3877,
      "'=>": 3878,
      "▁Sub": 3879,
      "▁air": 3880,
      "ops": 3881,
      "nav": 3882,
      "ements": 3883,
      "(id": 3884,
      "▁enter": 3885,
      "anged": 3886,
      "End": 3887,
      "▁location": 3888,
      "▁night": 3889,
      "▁doing": 3890,
      "▁Red": 3891,
      "lin": 3892,
      "}\n\n\n": 3893,
      "vider": 3894,
      "▁pick": 3895,
      "▁watch": 3896,
      "essages": 3897,
      "▁human": 3898,
      "▁dam": 3899,
      "pend": 3900,
      "dir": 3901,
      "▁tax": 3902,
      "▁girl": 3903,
      "reet": 3904,
      "▁box": 3905,
      "▁strong": 3906,
      "(v": 3907,
      "rel": 3908,
      "▁interface": 3909,
      "▁msg": 3910,
      "fect": 3911,
      "_at": 3912,
      "▁house": 3913,
      "▁track": 3914,
      "');\n\n": 3915,
      "je": 3916,
      "▁John": 3917,
      "istr": 3918,
      "(S": 3919,
      "ube": 3920,
      "▁ce": 3921,
      "itted": 3922,
      "VER": 3923,
      "*)": 3924,
      "parent": 3925,
      "▁application": 3926,
      "any": 3927,
      ".swing": 3928,
      "▁pack": 3929,
      "\\u": 3930,
      "▁pract": 3931,
      "▁section": 3932,
      "ctx": 3933,
      "▁unsigned": 3934,
      ".Point": 3935,
      "▁One": 3936,
      "iple": 3937,
      "aid": 3938,
      "Vector": 3939,
      "byte": 3940,
      "▁wait": 3941,
      "▁together": 3942,
      "▁throws": 3943,
      "FO": 3944,
      "'))": 3945,
      "host": 3946,
      "ising": 3947,
      ".view": 3948,
      "▁terms": 3949,
      "framework": 3950,
      "-r": 3951,
      "▁apply": 3952,
      "▁session": 3953,
      "Options": 3954,
      "uggest": 3955,
      "▁others": 3956,
      "witter": 3957,
      "▁fund": 3958,
      "Init": 3959,
      "__(": 3960,
      "ensor": 3961,
      "GET": 3962,
      "▁several": 3963,
      "ii": 3964,
      "[j": 3965,
      "IO": 3966,
      "▁template": 3967,
      "Position": 3968,
      "▁econ": 3969,
      "achine": 3970,
      "▁il": 3971,
      ".spring": 3972,
      "main": 3973,
      "elt": 3974,
      "iment": 3975,
      "Rec": 3976,
      "mm": 3977,
      "▁University": 3978,
      "ursor": 3979,
      "▁▁▁▁▁▁▁▁▁▁▁▁▁▁▁▁▁▁▁▁": 3980,
      "GL": 3981,
      "icture": 3982,
      "ithub": 3983,
      "cer": 3984,
      "cast": 3985,
      "From": 3986,
      "ales": 3987,
      "▁subject": 3988,
      "password": 3989,
      "ny": 3990,
      "▁esc": 3991,
      ".write": 3992,
      "What": 3993,
      ".H": 3994,
      "▁history": 3995,
      "▁Fe": 3996,
      "▁individual": 3997,
      "unit": 3998,
      "▁-->": 3999,
      "▁du": 4000,
      "IST": 4001,
      "▁users": 4002,
      "fs": 4003,
      "false": 4004,
      "unt": 4005,
      "Title": 4006,
      "▁mot": 4007,
      "▁future": 4008,
      "ached": 4009,
      "▁started": 4010,
      "▁mode": 4011,
      "▁'<": 4012,
      "_array": 4013,
      "▁ax": 4014,
      "'];\n": 4015,
      "ires": 4016,
      "There": 4017,
      "ught": 4018,
      "tml": 4019,
      "posed": 4020,
      "icult": 4021,
      "▁took": 4022,
      "▁games": 4023,
      "▁}}": 4024,
      "▁?>\n": 4025,
      "▁products": 4026,
      "Is": 4027,
      "▁bad": 4028,
      "▁Des": 4029,
      ".path": 4030,
      "'\n\n": 4031,
      "▁Post": 4032,
      "avel": 4033,
      "(:": 4034,
      "150": 4035,
      "▁needs": 4036,
      "▁known": 4037,
      "Fl": 4038,
      "▁exec": 4039,
      "▁seen": 4040,
      "51": 4041,
      "ume": 4042,
      "▁border": 4043,
      "▁live": 4044,
      "temp": 4045,
      "Per": 4046,
      "▁variable": 4047,
      "iet": 4048,
      "▁Def": 4049,
      "▁ge": 4050,
      "eme": 4051,
      "_back": 4052,
      "first": 4053,
      "▁provided": 4054,
      "////////////////////////////////": 4055,
      "▁filename": 4056,
      "▁hope": 4057,
      "uly": 4058,
      "auto": 4059,
      "find": 4060,
      "_string": 4061,
      "btn": 4062,
      "itude": 4063,
      "Attribute": 4064,
      "▁young": 4065,
      ".txt": 4066,
      "▁website": 4067,
      "▁Prop": 4068,
      "▁ey": 4069,
      ">();\n": 4070,
      "ional": 4071,
      "ARR": 4072,
      "ictionary": 4073,
      "urther": 4074,
      ".</": 4075,
      "ALL": 4076,
      "▁study": 4077,
      "ili": 4078,
      "▁network": 4079,
      "yl": 4080,
      "istance": 4081,
      "OK": 4082,
      "NU": 4083,
      "rest": 4084,
      "▁ST": 4085,
      "icrosoft": 4086,
      "▁limit": 4087,
      "▁cut": 4088,
      "():\n": 4089,
      "▁cou": 4090,
      "ogn": 4091,
      "▁sizeof": 4092,
      "ival": 4093,
      "▁went": 4094,
      ".z": 4095,
      "Link": 4096,
      "▁fire": 4097,
      "▁across": 4098,
      "▁community": 4099,
      "region": 4100,
      "NE": 4101,
      "Ref": 4102,
      "▁official": 4103,
      "▁visit": 4104,
      "olve": 4105,
      "▁received": 4106,
      "▁token": 4107,
      "▁months": 4108,
      "▁anim": 4109,
      "▁particular": 4110,
      "styles": 4111,
      "ico": 4112,
      "▁ess": 4113,
      "87": 4114,
      ".Control": 4115,
      "ball": 4116,
      "▁learn": 4117,
      "inding": 4118,
      "Var": 4119,
      "▁decl": 4120,
      "(err": 4121,
      "LECT": 4122,
      "One": 4123,
      "pha": 4124,
      "▁~": 4125,
      "fort": 4126,
      "asure": 4127,
      "▁mind": 4128,
      "▁End": 4129,
      "Check": 4130,
      "▁quick": 4131,
      "\"),": 4132,
      "AND": 4133,
      "utions": 4134,
      "Base": 4135,
      "________": 4136,
      "▁comment": 4137,
      "INE": 4138,
      "But": 4139,
      "▁El": 4140,
      "▁Us": 4141,
      "▁admin": 4142,
      "mark": 4143,
      "▁Name": 4144,
      "`\n": 4145,
      "▁Type": 4146,
      "amic": 4147,
      "pc": 4148,
      "loor": 4149,
      "FT": 4150,
      "▁opp": 4151,
      "cket": 4152,
      ")->": 4153,
      "tx": 4154,
      "▁pur": 4155,
      "uel": 4156,
      "ymbol": 4157,
      "uation": 4158,
      "anger": 4159,
      "▁background": 4160,
      "ecess": 4161,
      "efined": 4162,
      "........": 4163,
      "▁description": 4164,
      "▁represent": 4165,
      "\"));\n": 4166,
      "pression": 4167,
      "rowser": 4168,
      "▁series": 4169,
      "wards": 4170,
      "52": 4171,
      "($_": 4172,
      "aise": 4173,
      "▁hot": 4174,
      "acity": 4175,
      "ries": 4176,
      "actions": 4177,
      "Create": 4178,
      "adio": 4179,
      "amples": 4180,
      "▁original": 4181,
      "ensive": 4182,
      "font": 4183,
      "stream": 4184,
      ".springframework": 4185,
      "001": 4186,
      "server": 4187,
      "▁bill": 4188,
      "ACK": 4189,
      "ilename": 4190,
      "▁frame": 4191,
      "▁=\n": 4192,
      "Edit": 4193,
      "adius": 4194,
      "▁draw": 4195,
      "anks": 4196,
      "▁deter": 4197,
      "▁comes": 4198,
      "_int": 4199,
      "▁foreach": 4200,
      "angle": 4201,
      "▁elect": 4202,
      "pected": 4203,
      "Header": 4204,
      "istration": 4205,
      "False": 4206,
      "▁Game": 4207,
      "▁filter": 4208,
      "Activity": 4209,
      "▁larg": 4210,
      "inition": 4211,
      "▁\"<": 4212,
      "256": 4213,
      "ised": 4214,
      "▁remove": 4215,
      "▁Trans": 4216,
      "met": 4217,
      "see": 4218,
      "Format": 4219,
      "Command": 4220,
      "▁EX": 4221,
      "None": 4222,
      "▁front": 4223,
      "ASE": 4224,
      "▁Rec": 4225,
      "oundation": 4226,
      "▁vo": 4227,
      "96": 4228,
      "=\\\"": 4229,
      "(*": 4230,
      "Change": 4231,
      ".Write": 4232,
      "group": 4233,
      "ients": 4234,
      "uy": 4235,
      "****************************************************************": 4236,
      "▁dig": 4237,
      "hr": 4238,
      "(-": 4239,
      "▁gen": 4240,
      "number": 4241,
      "vec": 4242,
      "urope": 4243,
      "entry": 4244,
      "LL": 4245,
      "▁ste": 4246,
      "Valid": 4247,
      "'],": 4248,
      "_param": 4249,
      "▁selected": 4250,
      "▁according": 4251,
      "▁Dis": 4252,
      "▁util": 4253,
      "Buffer": 4254,
      "_error": 4255,
      "▁associ": 4256,
      "_SIZE": 4257,
      "▁wor": 4258,
      "▁printf": 4259,
      "rag": 4260,
      "DD": 4261,
      "▁Val": 4262,
      "▁activ": 4263,
      "Eng": 4264,
      "etime": 4265,
      "▁virtual": 4266,
      "aign": 4267,
      "aur": 4268,
      "▁Pres": 4269,
      "▁Exception": 4270,
      "▁anything": 4271,
      "▁Off": 4272,
      "▁hours": 4273,
      "▁war": 4274,
      "Args": 4275,
      "aging": 4276,
      "▁models": 4277,
      "▁Time": 4278,
      "Ob": 4279,
      "ams": 4280,
      "joy": 4281,
      "▁early": 4282,
      ".read": 4283,
      "86": 4284,
      "▁center": 4285,
      "▁Initial": 4286,
      "▁language": 4287,
      "length": 4288,
      "xy": 4289,
      "▁sn": 4290,
      "▁inf": 4291,
      "Post": 4292,
      "▁ago": 4293,
      "▁easy": 4294,
      "_code": 4295,
      "▁ANY": 4296,
      "_ch": 4297,
      "▁download": 4298,
      "(T": 4299,
      "aved": 4300,
      "▁students": 4301,
      "▁fig": 4302,
      "light": 4303,
      "xx": 4304,
      "▁buffer": 4305,
      "▁Dep": 4306,
      "▁Math": 4307,
      "ITH": 4308,
      "▁vari": 4309,
      "▁due": 4310,
      "Factory": 4311,
      "▁por": 4312,
      "▁ep": 4313,
      "otype": 4314,
      "▁cannot": 4315,
      "▁white": 4316,
      "<int": 4317,
      "tern": 4318,
      "▁register": 4319,
      "▁pred": 4320,
      "clus": 4321,
      "_date": 4322,
      "▁/**": 4323,
      "▁auth": 4324,
      "▁[]\n": 4325,
      "▁period": 4326,
      "nown": 4327,
      "▁vot": 4328,
      "▁screen": 4329,
      "'d": 4330,
      "Types": 4331,
      "▁tmp": 4332,
      "ural": 4333,
      "▁benef": 4334,
      "_y": 4335,
      "▁net": 4336,
      "▁States": 4337,
      "']['": 4338,
      "▁Ne": 4339,
      "▁NOT": 4340,
      "▁neg": 4341,
      "102": 4342,
      "▁common": 4343,
      "scope": 4344,
      "▁cred": 4345,
      "ges": 4346,
      "_TYPE": 4347,
      "▁suggest": 4348,
      "oom": 4349,
      ".\n\n\n": 4350,
      "▁accept": 4351,
      "▁random": 4352,
      "erm": 4353,
      "▁Vector": 4354,
      "with": 4355,
      "TER": 4356,
      "(str": 4357,
      "▁respons": 4358,
      "▁hit": 4359,
      ".Set": 4360,
      "grid": 4361,
      "ria": 4362,
      "▁click": 4363,
      "undle": 4364,
      "Case": 4365,
      "insert": 4366,
      "Utils": 4367,
      "▁\"\"\"": 4368,
      "▁implement": 4369,
      "atal": 4370,
      "tempt": 4371,
      "template": 4372,
      "ocr": 4373,
      "returns": 4374,
      "▁players": 4375,
      "users": 4376,
      "edef": 4377,
      "▁These": 4378,
      "▁among": 4379,
      "▁deb": 4380,
      "ha": 4381,
      ".getElement": 4382,
      "▁circ": 4383,
      "▁answer": 4384,
      "▁walk": 4385,
      "▁treat": 4386,
      "▁Ge": 4387,
      "▁Create": 4388,
      "▁age": 4389,
      "▁req": 4390,
      "OST": 4391,
      "angular": 4392,
      "▁five": 4393,
      "53": 4394,
      "▁distributed": 4395,
      "▁friend": 4396,
      "TP": 4397,
      "▁clean": 4398,
      "ows": 4399,
      ".Controls": 4400,
      "dis": 4401,
      "▁words": 4402,
      ".io": 4403,
      "zy": 4404,
      "▁header": 4405,
      "▁Check": 4406,
      "just": 4407,
      "holder": 4408,
      "=\"<?": 4409,
      "▁GNU": 4410,
      "▁Col": 4411,
      "imest": 4412,
      "entic": 4413,
      "{\n\n": 4414,
      "▁tre": 4415,
      "last": 4416,
      "la": 4417,
      "▁York": 4418,
      "Lo": 4419,
      "▁discuss": 4420,
      "▁God": 4421,
      "▁issue": 4422,
      "rew": 4423,
      "Window": 4424,
      "▁land": 4425,
      "120": 4426,
      "▁stream": 4427,
      "▁Par": 4428,
      "▁quality": 4429,
      "Par": 4430,
      "_num": 4431,
      "54": 4432,
      "▁sal": 4433,
      "elves": 4434,
      "ORD": 4435,
      "(user": 4436,
      "▁works": 4437,
      "▁half": 4438,
      "enses": 4439,
      "vas": 4440,
      "▁police": 4441,
      "(\"/": 4442,
      "ua": 4443,
      "▁simple": 4444,
      "Address": 4445,
      "▁empty": 4446,
      "esh": 4447,
      "128": 4448,
      "Update": 4449,
      "▁Created": 4450,
      "('.": 4451,
      ").\n": 4452,
      "▁▁▁▁▁▁▁▁▁▁▁▁▁▁▁▁▁▁": 4453,
      "▁agre": 4454,
      "▁FROM": 4455,
      "▁cook": 4456,
      "▁everything": 4457,
      "ilities": 4458,
      ".status": 4459,
      "▁relations": 4460,
      "extern": 4461,
      "▁nothing": 4462,
      "▁running": 4463,
      "\tvoid": 4464,
      "RI": 4465,
      "_a": 4466,
      "_CON": 4467,
      "por": 4468,
      ".sub": 4469,
      "require": 4470,
      "▁City": 4471,
      "▁West": 4472,
      "▁mor": 4473,
      "store": 4474,
      "Equals": 4475,
      "oder": 4476,
      "▁na": 4477,
      "▁[[": 4478,
      "▁('": 4479,
      "▁Don": 4480,
      "ERS": 4481,
      "/p": 4482,
      ".json": 4483,
      "abor": 4484,
      "▁someone": 4485,
      "_text": 4486,
      ".css": 4487,
      ".Tab": 4488,
      "▁Some": 4489,
      "ato": 4490,
      "double": 4491,
      "▁share": 4492,
      "(void": 4493,
      "_dir": 4494,
      "▁ur": 4495,
      "Stack": 4496,
      "▁World": 4497,
      ".X": 4498,
      "stract": 4499,
      "How": 4500,
      ".Generic": 4501,
      "icles": 4502,
      "▁entry": 4503,
      "▁changes": 4504,
      "▁personal": 4505,
      "(A": 4506,
      "▁offset": 4507,
      "_ptr": 4508,
      "▁pie": 4509,
      "▁Jan": 4510,
      "-group": 4511,
      "module": 4512,
      "Items": 4513,
      "▁However": 4514,
      "verage": 4515,
      ".Font": 4516,
      "▁events": 4517,
      ".min": 4518,
      "▁invol": 4519,
      "za": 4520,
      "▁whole": 4521,
      "▁needed": 4522,
      "▁likely": 4523,
      "rief": 4524,
      "ORM": 4525,
      "version": 4526,
      "▁fight": 4527,
      "▁ein": 4528,
      "Frame": 4529,
      "197": 4530,
      "gen": 4531,
      "▁Out": 4532,
      "avigation": 4533,
      "Length": 4534,
      "illed": 4535,
      "quence": 4536,
      "▁!==": 4537,
      "▁Software": 4538,
      "▁writing": 4539,
      "▁rate": 4540,
      "'],\n": 4541,
      "Panel": 4542,
      "inner": 4543,
      "▁[\"": 4544,
      "▁tw": 4545,
      "cd": 4546,
      "▁;\n": 4547,
      "_state": 4548,
      "▁Sm": 4549,
      "▁Mark": 4550,
      "))\n\n": 4551,
      "prot": 4552,
      "▁Mr": 4553,
      "method": 4554,
      "ustomer": 4555,
      "Icon": 4556,
      "▁correct": 4557,
      "(object": 4558,
      "▁More": 4559,
      "▁fall": 4560,
      "▁vol": 4561,
      "▁development": 4562,
      "ently": 4563,
      "▁si": 4564,
      "medi": 4565,
      "ving": 4566,
      "PP": 4567,
      "aker": 4568,
      "▁indu": 4569,
      "▁elif": 4570,
      "▁pret": 4571,
      "▁believe": 4572,
      "ns": 4573,
      "omet": 4574,
      "123": 4575,
      "▁Intern": 4576,
      "Rect": 4577,
      "So": 4578,
      ".error": 4579,
      "Read": 4580,
      "▁features": 4581,
      "▁minutes": 4582,
      "---": 4583,
      "asing": 4584,
      "cret": 4585,
      "\">\r\n": 4586,
      ".annot": 4587,
      "▁collection": 4588,
      "'.": 4589,
      "▁similar": 4590,
      "▁taken": 4591,
      "(\"%": 4592,
      "Order": 4593,
      "']\n": 4594,
      "-md": 4595,
      "▁TH": 4596,
      "aced": 4597,
      "▁isn": 4598,
      "/j": 4599,
      "▁son": 4600,
      "graph": 4601,
      "▁Integer": 4602,
      "▁necess": 4603,
      "reen": 4604,
      "▁um": 4605,
      "▁\\<": 4606,
      "▁moment": 4607,
      "▁bring": 4608,
      "▁indic": 4609,
      "ysis": 4610,
      "Level": 4611,
      "verse": 4612,
      "urrenc": 4613,
      "_test": 4614,
      "▁entire": 4615,
      "Down": 4616,
      "▁}\n\n\n": 4617,
      "(result": 4618,
      "▁Read": 4619,
      "Mod": 4620,
      "▁trying": 4621,
      "\"),\n": 4622,
      "▁member": 4623,
      "▁Cor": 4624,
      "ODO": 4625,
      "-control": 4626,
      "untime": 4627,
      "▁Sim": 4628,
      "Dialog": 4629,
      "plot": 4630,
      "_on": 4631,
      "▁phys": 4632,
      "}/": 4633,
      "▁namespace": 4634,
      "\t\r\n": 4635,
      "acc": 4636,
      "Player": 4637,
      "ARE": 4638,
      "89": 4639,
      "▁foot": 4640,
      "▁board": 4641,
      "part": 4642,
      "▁sus": 4643,
      "wise": 4644,
      "▁Mc": 4645,
      "▁push": 4646,
      "ATA": 4647,
      "▁please": 4648,
      "ried": 4649,
      "weet": 4650,
      "bit": 4651,
      "ided": 4652,
      "VE": 4653,
      "▁Sw": 4654,
      "UB": 4655,
      "▁types": 4656,
      "edia": 4657,
      "▁clos": 4658,
      "acebook": 4659,
      "When": 4660,
      "▁edit": 4661,
      "igger": 4662,
      "▁energ": 4663,
      "Container": 4664,
      "▁phot": 4665,
      "▁Count": 4666,
      "▁Europe": 4667,
      ".Is": 4668,
      "▁Russ": 4669,
      "peed": 4670,
      "▁Str": 4671,
      "▁py": 4672,
      "▁cult": 4673,
      "▁defined": 4674,
      "ccount": 4675,
      "▁obt": 4676,
      ".Location": 4677,
      "▁thread": 4678,
      "ille": 4679,
      "▁instead": 4680,
      "strong": 4681,
      "▁Sec": 4682,
      "URE": 4683,
      "▁idea": 4684,
      ".se": 4685,
      "emy": 4686,
      "selected": 4687,
      "Connection": 4688,
      "acing": 4689,
      "thread": 4690,
      ".next": 4691,
      "▁coll": 4692,
      "▁film": 4693,
      "istic": 4694,
      "▁compet": 4695,
      "▁conn": 4696,
      "though": 4697,
      "▁compan": 4698,
      "ocket": 4699,
      "▁teach": 4700,
      "=(": 4701,
      "▁phone": 4702,
      "▁active": 4703,
      "79": 4704,
      "delete": 4705,
      "101": 4706,
      "tries": 4707,
      "▁mo": 4708,
      "▁death": 4709,
      "});\n\n": 4710,
      "ocol": 4711,
      "Widget": 4712,
      "▁article": 4713,
      "rodu": 4714,
      "andid": 4715,
      "▁Cr": 4716,
      "ka": 4717,
      "():": 4718,
      "lood": 4719,
      "\t\t\t\n": 4720,
      "▁almost": 4721,
      "▁sell": 4722,
      "ervlet": 4723,
      "rip": 4724,
      "Unit": 4725,
      "▁applic": 4726,
      "▁connect": 4727,
      "▁feature": 4728,
      "▁via": 4729,
      "'),": 4730,
      "▁lim": 4731,
      "▁▁▁▁▁▁▁▁▁▁▁▁▁▁▁▁▁▁▁▁▁▁▁▁▁▁▁▁▁▁▁▁▁▁▁▁▁▁▁▁▁▁▁▁▁▁▁": 4732,
      "▁Gu": 4733,
      "Engine": 4734,
      "▁ens": 4735,
      "▁environment": 4736,
      "block": 4737,
      "HERE": 4738,
      "NULL": 4739,
      "gy": 4740,
      "tag": 4741,
      ")).": 4742,
      "exp": 4743,
      "▁compl": 4744,
      "▁install": 4745,
      "▁complete": 4746,
      "queue": 4747,
      "atural": 4748,
      "▁general": 4749,
      "thon": 4750,
      "▁asked": 4751,
      "ores": 4752,
      "(res": 4753,
      "▁reserved": 4754,
      "SP": 4755,
      "▁signific": 4756,
      "Off": 4757,
      "▁▁▁▁▁▁▁▁▁▁▁▁▁▁▁▁▁▁▁▁▁▁▁▁▁▁▁▁▁": 4758,
      "▁Ag": 4759,
      "▁Just": 4760,
      "▁Error": 4761,
      "▁infl": 4762,
      "adata": 4763,
      "▁icon": 4764,
      "asks": 4765,
      "''": 4766,
      "_LO": 4767,
      "?.": 4768,
      "account": 4769,
      "▁(*": 4770,
      "')\n\n": 4771,
      "rap": 4772,
      "_var": 4773,
      "▁FOR": 4774,
      "▁party": 4775,
      "▁Your": 4776,
      "cat": 4777,
      "stry": 4778,
      ".new": 4779,
      "boot": 4780,
      "▁Nov": 4781,
      "▁vector": 4782,
      "▁normal": 4783,
      "▁further": 4784,
      "Repository": 4785,
      "800": 4786,
      "▁database": 4787,
      "attle": 4788,
      "▁music": 4789,
      "▁speed": 4790,
      "▁doc": 4791,
      "process": 4792,
      "IGHT": 4793,
      ".parse": 4794,
      "▁taking": 4795,
      "▁viol": 4796,
      "ceed": 4797,
      "▁After": 4798,
      "▁forward": 4799,
      "▁crit": 4800,
      "\"/>\n": 4801,
      "rot": 4802,
      "▁failed": 4803,
      "efore": 4804,
      "▁concern": 4805,
      "oe": 4806,
      "ba": 4807,
      "▁sender": 4808,
      "▁term": 4809,
      "has": 4810,
      "=\"#": 4811,
      "▁potential": 4812,
      "Num": 4813,
      "▁published": 4814,
      ".close": 4815,
      "▁Image": 4816,
      "straint": 4817,
      "UD": 4818,
      "▁Ob": 4819,
      "▁probably": 4820,
      "lim": 4821,
      "\":\n": 4822,
      "olume": 4823,
      "▁consum": 4824,
      "76": 4825,
      "ague": 4826,
      "ensions": 4827,
      "▁investig": 4828,
      "-year": 4829,
      "');": 4830,
      "-sm": 4831,
      "▁enjoy": 4832,
      "orig": 4833,
      "ering": 4834,
      "cp": 4835,
      "leased": 4836,
      "plements": 4837,
      "▁returns": 4838,
      "pat": 4839,
      "BO": 4840,
      "▁House": 4841,
      ".Label": 4842,
      "▁weight": 4843,
      "ighb": 4844,
      "▁conditions": 4845,
      "▁exception": 4846,
      "description": 4847,
      "▁trad": 4848,
      "-to": 4849,
      "▁{}": 4850,
      "▁module": 4851,
      "END": 4852,
      ".ap": 4853,
      ".props": 4854,
      "▁constructor": 4855,
      "aves": 4856,
      "▁favor": 4857,
      "▁Now": 4858,
      ";i": 4859,
      "▁Main": 4860,
      "_k": 4861,
      "eries": 4862,
      "transform": 4863,
      "imestamp": 4864,
      "Pre": 4865,
      "▁mer": 4866,
      ".res": 4867,
      "stant": 4868,
      "Location": 4869,
      "_NAME": 4870,
      "▁loss": 4871,
      "▁\n\n": 4872,
      "net": 4873,
      "▁engine": 4874,
      "Block": 4875,
      "▁issues": 4876,
      "▁parse": 4877,
      "▁Bar": 4878,
      "▁stay": 4879,
      "▁JSON": 4880,
      "▁dom": 4881,
      "airs": 4882,
      "wner": 4883,
      "▁lower": 4884,
      "\",\r\n": 4885,
      "▁Dem": 4886,
      "ufact": 4887,
      "▁ps": 4888,
      "▁perfect": 4889,
      "RL": 4890,
      "▁educ": 4891,
      "ls": 4892,
      "emory": 4893,
      "ARRANT": 4894,
      "uge": 4895,
      "▁exact": 4896,
      ".key": 4897,
      "alled": 4898,
      "ech": 4899,
      "ief": 4900,
      "\\/": 4901,
      "oke": 4902,
      "▁former": 4903,
      "alloc": 4904,
      "▁six": 4905,
      "ida": 4906,
      "▁margin": 4907,
      "▁heart": 4908,
      "ald": 4909,
      "pack": 4910,
      ".getElementById": 4911,
      "▁WARRANT": 4912,
      "▁rather": 4913,
      "▁building": 4914,
      "erman": 4915,
      "lice": 4916,
      "▁questions": 4917,
      "izes": 4918,
      "lege": 4919,
      "irectory": 4920,
      "▁je": 4921,
      "▁cas": 4922,
      "props": 4923,
      "utf": 4924,
      "▁security": 4925,
      "▁however": 4926,
      "weight": 4927,
      "▁inside": 4928,
      "▁president": 4929,
      "Char": 4930,
      "▁WITH": 4931,
      ".map": 4932,
      "▁graph": 4933,
      "▁tag": 4934,
      "_status": 4935,
      "▁attempt": 4936,
      "opp": 4937,
      "uses": 4938,
      "\tconst": 4939,
      "▁round": 4940,
      ",$": 4941,
      "▁friends": 4942,
      "Email": 4943,
      "?>": 4944,
      "Resource": 4945,
      "KEY": 4946,
      "osp": 4947,
      ".query": 4948,
      "▁North": 4949,
      "ables": 4950,
      "istrib": 4951,
      "_class": 4952,
      "ello": 4953,
      "That": 4954,
      "pecially": 4955,
      "▁President": 4956,
      "▁campaign": 4957,
      "▁alt": 4958,
      "area": 4959,
      "▁chall": 4960,
      "▁opport": 4961,
      ".Con": 4962,
      "▁energy": 4963,
      "like": 4964,
      ".string": 4965,
      "ington": 4966,
      ")*": 4967,
      "yy": 4968,
      "▁profession": 4969,
      "irth": 4970,
      "▁seg": 4971,
      "▁hor": 4972,
      "iers": 4973,
      "can": 4974,
      "▁behind": 4975,
      "Product": 4976,
      "fg": 4977,
      "▁Sk": 4978,
      ".jpg": 4979,
      "?:": 4980,
      "];\n\n": 4981,
      "▁callback": 4982,
      "▁Http": 4983,
      "long": 4984,
      "MS": 4985,
      "ATH": 4986,
      "▁raise": 4987,
      "▁wanted": 4988,
      "rown": 4989,
      "utor": 4990,
      "lt": 4991,
      "]=": 4992,
      "eline": 4993,
      "MA": 4994,
      "▁separ": 4995,
      "cs": 4996,
      "semb": 4997,
      "Dis": 4998,
      "bserv": 4999,
      "▁Will": 5000,
      "▁policy": 5001,
      "▁third": 5002,
      "phone": 5003,
      "▁bed": 5004,
      "/g": 5005,
      ".__": 5006,
      "▁Inc": 5007,
      "izing": 5008,
      ".remove": 5009,
      "instance": 5010,
      ".type": 5011,
      "▁serv": 5012,
      "Each": 5013,
      "▁har": 5014,
      "▁Message": 5015,
      "(key": 5016,
      "SELECT": 5017,
      "Pos": 5018,
      "));\r\n": 5019,
      "▁recomm": 5020,
      "▁training": 5021,
      "▁Ent": 5022,
      "▁Char": 5023,
      "icht": 5024,
      "(file": 5025,
      "▁prior": 5026,
      "Game": 5027,
      "▁exit": 5028,
      "Params": 5029,
      ".core": 5030,
      "PC": 5031,
      "nes": 5032,
      "anced": 5033,
      "(request": 5034,
      "Password": 5035,
      "}>\n": 5036,
      "▁mag": 5037,
      "▁release": 5038,
      "▁shall": 5039,
      "udent": 5040,
      "▁South": 5041,
      "ando": 5042,
      ":'": 5043,
      ".TabIndex": 5044,
      "sk": 5045,
      "anner": 5046,
      "isset": 5047,
      "▁outside": 5048,
      "ledge": 5049,
      "▁Rob": 5050,
      "▁imm": 5051,
      "!\n": 5052,
      "▁Web": 5053,
      "Des": 5054,
      "BC": 5055,
      "ancial": 5056,
      "Route": 5057,
      "Dec": 5058,
      "ferences": 5059,
      "▁purch": 5060,
      "▁Model": 5061,
      "ctor": 5062,
      "gn": 5063,
      "_start": 5064,
      "_un": 5065,
      ".*": 5066,
      "ises": 5067,
      "▁ground": 5068,
      "▁unique": 5069,
      "▁beaut": 5070,
      "{\"": 5071,
      "▁pour": 5072,
      "▁Oct": 5073,
      "▁tree": 5074,
      "sets": 5075,
      "_res": 5076,
      "')->": 5077,
      "_reg": 5078,
      "(\"\\": 5079,
      "▁byte": 5080,
      "Bl": 5081,
      "▁dating": 5082,
      "▁matter": 5083,
      "▁Rem": 5084,
      "▁'../": 5085,
      "▁Aug": 5086,
      "▁La": 5087,
      "▁$(": 5088,
      "ournal": 5089,
      "111": 5090,
      "iam": 5091,
      "▁shows": 5092,
      "write": 5093,
      "▁ball": 5094,
      "▁simply": 5095,
      "▁fast": 5096,
      "▁memory": 5097,
      "ASS": 5098,
      "▁Of": 5099,
      "oved": 5100,
      "ante": 5101,
      "aul": 5102,
      "istry": 5103,
      ")));\n": 5104,
      "▁fit": 5105,
      "<string": 5106,
      "▁political": 5107,
      "ancel": 5108,
      "_.": 5109,
      "card": 5110,
      ".current": 5111,
      "och": 5112,
      "_image": 5113,
      "\\t": 5114,
      "#\n": 5115,
      "(L": 5116,
      "▁industry": 5117,
      "coming": 5118,
      "▁extra": 5119,
      "600": 5120,
      "▁reported": 5121,
      ".start": 5122,
      "▁resources": 5123,
      "▁img": 5124,
      "flow": 5125,
      "_EX": 5126,
      "(null": 5127,
      "▁Pre": 5128,
      "▁wrong": 5129,
      "interface": 5130,
      "Parameter": 5131,
      "ners": 5132,
      "ture": 5133,
      "ersist": 5134,
      "ountry": 5135,
      "▁seems": 5136,
      "alance": 5137,
      "dest": 5138,
      "\tString": 5139,
      "▁maint": 5140,
      "▁unit": 5141,
      "acters": 5142,
      "▁TR": 5143,
      "iful": 5144,
      "exports": 5145,
      "project": 5146,
      "Application": 5147,
      "legate": 5148,
      "▁takes": 5149,
      "term": 5150,
      "▁etc": 5151,
      "uster": 5152,
      "▁appear": 5153,
      "address": 5154,
      "▁fem": 5155,
      "hs": 5156,
      "▁hom": 5157,
      ",-": 5158,
      "▁difficult": 5159,
      "▁coming": 5160,
      "Open": 5161,
      "▁settings": 5162,
      "▁War": 5163,
      "▁Then": 5164,
      "▁autom": 5165,
      "▁Foundation": 5166,
      "▁quite": 5167,
      "Description": 5168,
      "▁blog": 5169,
      "iqu": 5170,
      "PS": 5171,
      "110": 5172,
      "_field": 5173,
      "Json": 5174,
      "SSION": 5175,
      "▁Sch": 5176,
      "▁LO": 5177,
      "▁descri": 5178,
      "▁everyone": 5179,
      "▁pretty": 5180,
      "▁longer": 5181,
      "▁menu": 5182,
      "▁currently": 5183,
      "sec": 5184,
      "▁relationship": 5185,
      "################################": 5186,
      "▁Map": 5187,
      "aset": 5188,
      "▁parameters": 5189,
      "▁crush": 5190,
      "\"\r\n": 5191,
      "ILITY": 5192,
      "igration": 5193,
      "▁cout": 5194,
      "total": 5195,
      "▁names": 5196,
      "ndef": 5197,
      "\");": 5198,
      "riend": 5199,
      "ynamic": 5200,
      "▁effort": 5201,
      "▁actual": 5202,
      "▁fields": 5203,
      "OUN": 5204,
      "ters": 5205,
      "250": 5206,
      "▁fix": 5207,
      "_model": 5208,
      "▁cases": 5209,
      "CA": 5210,
      "My": 5211,
      "Interface": 5212,
      "▁SE": 5213,
      "196": 5214,
      "]]": 5215,
      "alle": 5216,
      "▁National": 5217,
      "▁ArrayList": 5218,
      "inline": 5219,
      ".V": 5220,
      "ara": 5221,
      "refix": 5222,
      "asc": 5223,
      "Reader": 5224,
      "astic": 5225,
      "(()": 5226,
      "Cl": 5227,
      ".annotation": 5228,
      "▁performance": 5229,
      "aily": 5230,
      ".toString": 5231,
      ".net": 5232,
      "views": 5233,
      ".end": 5234,
      "ayers": 5235,
      "late": 5236,
      "▁Apr": 5237,
      "ederal": 5238,
      "'])": 5239,
      ".body": 5240,
      "▁higher": 5241,
      "_fl": 5242,
      "cr": 5243,
      "alert": 5244,
      "_node": 5245,
      "▁Google": 5246,
      "▁itself": 5247,
      "Auth": 5248,
      "urrency": 5249,
      "▁significant": 5250,
      "append": 5251,
      "▁respect": 5252,
      "strap": 5253,
      "▁una": 5254,
      "riteria": 5255,
      "PORT": 5256,
      ".apache": 5257,
      "Output": 5258,
      "▁progress": 5259,
      "▁mid": 5260,
      "▁Microsoft": 5261,
      "▁resource": 5262,
      "ablish": 5263,
      "▁dim": 5264,
      ".load": 5265,
      ".App": 5266,
      "▁direction": 5267,
      "▁additional": 5268,
      "▁▁▁▁▁▁▁▁▁▁▁▁▁▁▁▁▁▁▁▁▁▁▁▁": 5269,
      "▁numbers": 5270,
      "▁companies": 5271,
      ".Th": 5272,
      "▁sound": 5273,
      "username": 5274,
      "▁statement": 5275,
      "▁alert": 5276,
      "▁contract": 5277,
      "home": 5278,
      "_length": 5279,
      ".Component": 5280,
      "ev": 5281,
      ".Ex": 5282,
      "\";": 5283,
      "▁High": 5284,
      "▁)\n\n": 5285,
      "▁Point": 5286,
      "oph": 5287,
      "▁lines": 5288,
      "->_": 5289,
      "\")\n\n": 5290,
      "ox": 5291,
      "application": 5292,
      "▁]\n": 5293,
      "\n\n\n\n\n\n": 5294,
      "180": 5295,
      "▁soon": 5296,
      "ctions": 5297,
      "inger": 5298,
      "▁join": 5299,
      "▁Pe": 5300,
      "▁las": 5301,
      ".E": 5302,
      "css": 5303,
      "/or": 5304,
      "▁Start": 5305,
      "▁TO": 5306,
      "▁subs": 5307,
      "conn": 5308,
      "components": 5309,
      "DEBUG": 5310,
      "quare": 5311,
      "Function": 5312,
      "endar": 5313,
      ".index": 5314,
      "▁fill": 5315,
      "▁choose": 5316,
      "how": 5317,
      "▁America": 5318,
      "assets": 5319,
      "------------": 5320,
      "▁Value": 5321,
      "▁office": 5322,
      "▁veh": 5323,
      "▁transform": 5324,
      "▁Art": 5325,
      "▁inde": 5326,
      "▁fn": 5327,
      "▁implements": 5328,
      "ango": 5329,
      "plete": 5330,
      "+\"": 5331,
      "tmp": 5332,
      "amily": 5333,
      "▁hash": 5334,
      "missions": 5335,
      "EST": 5336,
      "gt": 5337,
      "Provider": 5338,
      "▁▁▁▁▁▁▁▁▁▁▁▁▁▁▁▁▁▁▁▁▁▁": 5339,
      "▁flag": 5340,
      "▁particip": 5341,
      "den": 5342,
      "▁Returns": 5343,
      "▁note": 5344,
      "pm": 5345,
      "ideos": 5346,
      "▁specified": 5347,
      "▁EN": 5348,
      "ester": 5349,
      "olid": 5350,
      "▁upon": 5351,
      "(std": 5352,
      "\tv": 5353,
      "▁'\\": 5354,
      "uz": 5355,
      "▁vert": 5356,
      "▁vict": 5357,
      "\tself": 5358,
      "▁\"$": 5359,
      "85": 5360,
      ".k": 5361,
      "▁groups": 5362,
      "github": 5363,
      "lang": 5364,
      "▁mut": 5365,
      "TO": 5366,
      "▁ve": 5367,
      "▁Please": 5368,
      ";\n\n\n": 5369,
      "access": 5370,
      "▁{\"": 5371,
      "rea": 5372,
      "▁risk": 5373,
      "icker": 5374,
      "oggle": 5375,
      "\twhile": 5376,
      "ANG": 5377,
      ".send": 5378,
      "72": 5379,
      "▁woman": 5380,
      "▁gets": 5381,
      "▁ign": 5382,
      "▁Id": 5383,
      "_log": 5384,
      "ONE": 5385,
      "▁evid": 5386,
      "▁Har": 5387,
      "_sub": 5388,
      "▁endl": 5389,
      "▁included": 5390,
      "());\n\n": 5391,
      "▁Ap": 5392,
      "igr": 5393,
      "▁sem": 5394,
      "▁Black": 5395,
      "doc": 5396,
      "_table": 5397,
      "▁▁▁▁▁▁▁▁▁▁▁▁▁▁▁▁▁▁▁▁▁▁▁▁▁▁▁▁▁▁▁▁▁▁▁▁▁▁▁▁▁▁▁▁▁▁▁▁▁▁▁▁▁▁▁▁▁▁▁▁▁▁▁▁": 5398,
      "-up": 5399,
      "▁cause": 5400,
      "▁..": 5401,
      "▁van": 5402,
      "_dict": 5403,
      "▁focus": 5404,
      "IND": 5405,
      "CESS": 5406,
      ".Log": 5407,
      "▁multiple": 5408,
      "ido": 5409,
      "▁regard": 5410,
      "-M": 5411,
      "andler": 5412,
      "ourse": 5413,
      "▁deg": 5414,
      ".U": 5415,
      "▁addition": 5416,
      "▁various": 5417,
      "▁receive": 5418,
      "▁HT": 5419,
      "Obj": 5420,
      "DF": 5421,
      "▁increase": 5422,
      "▁Open": 5423,
      "];": 5424,
      "▁commit": 5425,
      "?\n": 5426,
      "ategories": 5427,
      "atory": 5428,
      "ship": 5429,
      "▁Mich": 5430,
      "▁html": 5431,
      "romise": 5432,
      "▁leave": 5433,
      "▁strateg": 5434,
      "aven": 5435,
      "▁Console": 5436,
      "known": 5437,
      "-n": 5438,
      "_LE": 5439,
      ".component": 5440,
      "▁bre": 5441,
      "Session": 5442,
      "iance": 5443,
      "▁align": 5444,
      "typedef": 5445,
      "_result": 5446,
      "▁WHERE": 5447,
      ".split": 5448,
      "▁reading": 5449,
      "FAULT": 5450,
      "▁clo": 5451,
      "▁notice": 5452,
      "_pr": 5453,
      "arter": 5454,
      "▁lock": 5455,
      "▁standard": 5456,
      "etic": 5457,
      "ellow": 5458,
      "▁padding": 5459,
      "▁His": 5460,
      "▁states": 5461,
      "_cast": 5462,
      "(P": 5463,
      "aa": 5464,
      "▁internal": 5465,
      "ean": 5466,
      "▁PRO": 5467,
      "▁Key": 5468,
      "▁especially": 5469,
      "ming": 5470,
      "▁cross": 5471,
      "▁national": 5472,
      "_object": 5473,
      "filter": 5474,
      "▁script": 5475,
      ".update": 5476,
      "_i": 5477,
      "▁Assert": 5478,
      "/core": 5479,
      "%%%%": 5480,
      "▁problems": 5481,
      "istor": 5482,
      "▁.=": 5483,
      "▁arch": 5484,
      "▁written": 5485,
      "▁milit": 5486,
      "MENT": 5487,
      ".ch": 5488,
      "cape": 5489,
      "▁Mus": 5490,
      "_config": 5491,
      "▁API": 5492,
      "foot": 5493,
      "▁images": 5494,
      "endl": 5495,
      ".In": 5496,
      "First": 5497,
      "▁platform": 5498,
      ".prot": 5499,
      "Option": 5500,
      "ste": 5501,
      "▁TODO": 5502,
      "▁force": 5503,
      ".cont": 5504,
      "\techo": 5505,
      "▁Dav": 5506,
      "Ptr": 5507,
      "(B": 5508,
      "RT": 5509,
      "▁Base": 5510,
      "]['": 5511,
      "▁announc": 5512,
      "console": 5513,
      "▁Py": 5514,
      "ds": 5515,
      ".as": 5516,
      "▁prevent": 5517,
      "apan": 5518,
      "▁{'": 5519,
      "}</": 5520,
      "▁Service": 5521,
      "▁Sen": 5522,
      "ador": 5523,
      "profile": 5524,
      "Top": 5525,
      "▁iter": 5526,
      "po": 5527,
      "IES": 5528,
      "JSON": 5529,
      "IE": 5530,
      "iant": 5531,
      "_j": 5532,
      "▁Sept": 5533,
      "_map": 5534,
      "bum": 5535,
      "(context": 5536,
      "▁Home": 5537,
      "ians": 5538,
      "GB": 5539,
      "63": 5540,
      "▁living": 5541,
      "▁pattern": 5542,
      "(input": 5543,
      "icient": 5544,
      "999": 5545,
      "Core": 5546,
      "▁entity": 5547,
      "▁integ": 5548,
      "Changed": 5549,
      "▁useful": 5550,
      ".info": 5551,
      "▁tool": 5552,
      "(item": 5553,
      "▁ok": 5554,
      "▁feed": 5555,
      "IX": 5556,
      "▁News": 5557,
      "remove": 5558,
      "erry": 5559,
      "\t\t\t\t\t\t\t\t\t": 5560,
      "ipment": 5561,
      "ares": 5562,
      "Do": 5563,
      "Current": 5564,
      ".content": 5565,
      ".Group": 5566,
      "ustral": 5567,
      "})": 5568,
      "▁popular": 5569,
      "▁stre": 5570,
      "▁methods": 5571,
      "_ERROR": 5572,
      "Left": 5573,
      "cal": 5574,
      "bsp": 5575,
      ".ToString": 5576,
      "▁dir": 5577,
      "▁allowed": 5578,
      "▁impact": 5579,
      "\")]\n": 5580,
      "62": 5581,
      ".config": 5582,
      "▁elements": 5583,
      "▁prote": 5584,
      "▁train": 5585,
      ".tr": 5586,
      "rs": 5587,
      "▁Republic": 5588,
      "▁Task": 5589,
      "61": 5590,
      "aries": 5591,
      "(D": 5592,
      "(get": 5593,
      "▁related": 5594,
      "▁vers": 5595,
      "▁sil": 5596,
      "▁\"\";\n": 5597,
      "▁cmd": 5598,
      "▁technology": 5599,
      ".width": 5600,
      "Float": 5601,
      "▁Use": 5602,
      "Body": 5603,
      "should": 5604,
      ".join": 5605,
      "Font": 5606,
      "llum": 5607,
      "ycle": 5608,
      "▁Brit": 5609,
      "▁mit": 5610,
      "▁scale": 5611,
      "▁(_": 5612,
      "ernel": 5613,
      "\"))\n": 5614,
      "▁score": 5615,
      "/v": 5616,
      "▁student": 5617,
      "UC": 5618,
      ".show": 5619,
      "▁average": 5620,
      "Enabled": 5621,
      "(ex": 5622,
      "common": 5623,
      "imation": 5624,
      ":@\"": 5625,
      "chie": 5626,
      "▁...\n\n": 5627,
      "river": 5628,
      "▁March": 5629,
      "category": 5630,
      "fin": 5631,
      "▁court": 5632,
      "Server": 5633,
      "▁container": 5634,
      "-st": 5635,
      "_for": 5636,
      "▁parts": 5637,
      "▁decision": 5638,
      "obs": 5639,
      "oub": 5640,
      "mitted": 5641,
      "▁$('#": 5642,
      "▁saw": 5643,
      "▁approach": 5644,
      "ICE": 5645,
      "▁saying": 5646,
      "▁anyone": 5647,
      "meta": 5648,
      "SD": 5649,
      "▁song": 5650,
      "display": 5651,
      "Oper": 5652,
      "outes": 5653,
      "▁channel": 5654,
      "▁changed": 5655,
      "▁finally": 5656,
      "_number": 5657,
      "Please": 5658,
      "oring": 5659,
      "-re": 5660,
      "▁kill": 5661,
      "▁drug": 5662,
      "window": 5663,
      "▁convert": 5664,
      "ombre": 5665,
      "▁ways": 5666,
      "Helper": 5667,
      "▁First": 5668,
      "(__": 5669,
      "urity": 5670,
      "▁Windows": 5671,
      "ees": 5672,
      "▁mat": 5673,
      "rapper": 5674,
      "▁plus": 5675,
      "anges": 5676,
      "\"].": 5677,
      "azon": 5678,
      "/t": 5679,
      "lat": 5680,
      "aste": 5681,
      "▁profile": 5682,
      "▁ready": 5683,
      "#ifndef": 5684,
      "rote": 5685,
      "▁sense": 5686,
      "Gener": 5687,
      "▁Config": 5688,
      "omy": 5689,
      "▁June": 5690,
      "▁latest": 5691,
      "▁saf": 5692,
      "▁region": 5693,
      "▁deep": 5694,
      "witch": 5695,
      "▁Park": 5696,
      "}`": 5697,
      "▁From": 5698,
      "II": 5699,
      "▁cv": 5700,
      "▁reach": 5701,
      "▁counter": 5702,
      "▁Work": 5703,
      "▁URL": 5704,
      "▁Update": 5705,
      "',\r\n": 5706,
      "▁immedi": 5707,
      "close": 5708,
      "ados": 5709,
      "ferred": 5710,
      "▁weeks": 5711,
      "urg": 5712,
      "▁damage": 5713,
      "▁lost": 5714,
      "ani": 5715,
      "_lo": 5716,
      "▁himself": 5717,
      "▁dog": 5718,
      ")]\n": 5719,
      "pir": 5720,
      "tt": 5721,
      "▁paper": 5722,
      "▁thems": 5723,
      "second": 5724,
      "▁staff": 5725,
      "▁Input": 5726,
      "\"+": 5727,
      "▁Facebook": 5728,
      "▁alloc": 5729,
      "▁sched": 5730,
      "ACE": 5731,
      "▁themselves": 5732,
      "▁Component": 5733,
      "▁driver": 5734,
      "ja": 5735,
      "(path": 5736,
      "▁category": 5737,
      "alls": 5738,
      "pu": 5739,
      "lluminate": 5740,
      "▁Action": 5741,
      ".button": 5742,
      "▁GL": 5743,
      "istics": 5744,
      "▁oil": 5745,
      "▁stock": 5746,
      ">'": 5747,
      "▁dead": 5748,
      "VAL": 5749,
      "QUE": 5750,
      "************************************************************************": 5751,
      "▁charg": 5752,
      "Return": 5753,
      "▁ful": 5754,
      "dom": 5755,
      "▁rules": 5756,
      "▁modify": 5757,
      "▁eval": 5758,
      "ham": 5759,
      "atement": 5760,
      "\\<": 5761,
      "ula": 5762,
      "=False": 5763,
      "RA": 5764,
      "▁contains": 5765,
      "74": 5766,
      "▁stack": 5767,
      "mar": 5768,
      "▁{}\n": 5769,
      "▁undefined": 5770,
      "Ass": 5771,
      "▁China": 5772,
      "vey": 5773,
      "*\n": 5774,
      "▁playing": 5775,
      ")/": 5776,
      "actor": 5777,
      "▁bottom": 5778,
      "lier": 5779,
      "▁Number": 5780,
      "▁couple": 5781,
      "DC": 5782,
      "▁SO": 5783,
      "gor": 5784,
      ".setText": 5785,
      "success": 5786,
      "command": 5787,
      "Filter": 5788,
      "▁Our": 5789,
      "_item": 5790,
      "▁ctx": 5791,
      "▁road": 5792,
      "Version": 5793,
      "case": 5794,
      "urt": 5795,
      "avior": 5796,
      "ych": 5797,
      "sembly": 5798,
      "▁Product": 5799,
      "▁held": 5800,
      "afe": 5801,
      "▁includes": 5802,
      "<quote": 5803,
      "▁avoid": 5804,
      "▁Fin": 5805,
      "▁Mod": 5806,
      "▁tab": 5807,
      "ano": 5808,
      "ipping": 5809,
      "-e": 5810,
      "▁insert": 5811,
      "target": 5812,
      "chan": 5813,
      ".Model": 5814,
      "IME": 5815,
      "\\\n": 5816,
      "▁machine": 5817,
      "avy": 5818,
      "▁NO": 5819,
      "▁Inter": 5820,
      "▁operation": 5821,
      "modal": 5822,
      "Tag": 5823,
      "]:": 5824,
      "▁production": 5825,
      "▁areas": 5826,
      "▁ren": 5827,
      "_from": 5828,
      "nbsp": 5829,
      "▁operator": 5830,
      "men": 5831,
      "apped": 5832,
      "_per": 5833,
      "zen": 5834,
      "(\".": 5835,
      ".save": 5836,
      "=\"{{": 5837,
      "▁tor": 5838,
      "(response": 5839,
      "▁candid": 5840,
      "▁conv": 5841,
      "ailed": 5842,
      "▁Lib": 5843,
      "comp": 5844,
      "ura": 5845,
      "▁Here": 5846,
      "▁argument": 5847,
      "hood": 5848,
      "▁establish": 5849,
      "ography": 5850,
      "▁onClick": 5851,
      "ambda": 5852,
      "▁sch": 5853,
      "▁movie": 5854,
      "▁sec": 5855,
      "▁activity": 5856,
      "▁sql": 5857,
      "_all": 5858,
      "incip": 5859,
      "▁provides": 5860,
      "▁sys": 5861,
      "acket": 5862,
      "▁wasn": 5863,
      "▁uses": 5864,
      "▁Function": 5865,
      ".google": 5866,
      "▁Result": 5867,
      "84": 5868,
      "Visible": 5869,
      "agma": 5870,
      "elcome": 5871,
      "▁Sy": 5872,
      "▁Cent": 5873,
      "ALSE": 5874,
      "EXT": 5875,
      "▁license": 5876,
      "▁Long": 5877,
      "▁accom": 5878,
      "▁ability": 5879,
      ".height": 5880,
      "Active": 5881,
      "ological": 5882,
      "oly": 5883,
      ")),": 5884,
      ".Se": 5885,
      "▁parameter": 5886,
      "prite": 5887,
      "ABILITY": 5888,
      ".service": 5889,
      "▁Group": 5890,
      "_query": 5891,
      "▁Item": 5892,
      "ining": 5893,
      "▁jud": 5894,
      "ims": 5895,
      "fix": 5896,
      "inder": 5897,
      "agram": 5898,
      "▁functions": 5899,
      "▁experi": 5900,
      "▁Em": 5901,
      "▁rot": 5902,
      "▁pen": 5903,
      ".btn": 5904,
      "▁AS": 5905,
      "#ifdef": 5906,
      "▁choice": 5907,
      "▁Page": 5908,
      "_PRO": 5909,
      "QU": 5910,
      "antity": 5911,
      "words": 5912,
      "▁readonly": 5913,
      "▁flex": 5914,
      "protected": 5915,
      "▁Any": 5916,
      "▁characters": 5917,
      "enced": 5918,
      "▁July": 5919,
      "iler": 5920,
      "Card": 5921,
      "urance": 5922,
      "▁rev": 5923,
      ".event": 5924,
      "aly": 5925,
      "130": 5926,
      "▁wonder": 5927,
      "▁Port": 5928,
      "▁legal": 5929,
      "role": 5930,
      "▁ten": 5931,
      "▁goes": 5932,
      "MP": 5933,
      "white": 5934,
      "):\r\n": 5935,
      "))\r\n": 5936,
      "▁reference": 5937,
      "▁mis": 5938,
      "▁Project": 5939,
      "icks": 5940,
      ">&": 5941,
      "CON": 5942,
      "▁repl": 5943,
      "▁regular": 5944,
      "Storage": 5945,
      "ramework": 5946,
      "▁goal": 5947,
      "▁touch": 5948,
      ".widget": 5949,
      "▁built": 5950,
      "des": 5951,
      "Part": 5952,
      "(re": 5953,
      "▁worth": 5954,
      "hib": 5955,
      "game": 5956,
      "91": 5957,
      "192": 5958,
      "acion": 5959,
      "▁White": 5960,
      "(type": 5961,
      "(`": 5962,
      "81": 5963,
      "▁natural": 5964,
      "▁inj": 5965,
      "▁calcul": 5966,
      "▁April": 5967,
      ".List": 5968,
      "▁associated": 5969,
      "\tSystem": 5970,
      "~~": 5971,
      "=[": 5972,
      "▁storage": 5973,
      "▁bytes": 5974,
      "▁travel": 5975,
      "▁sou": 5976,
      "▁passed": 5977,
      "!=": 5978,
      "ascript": 5979,
      ".open": 5980,
      "▁grid": 5981,
      "▁bus": 5982,
      "▁recogn": 5983,
      "Ab": 5984,
      "▁hon": 5985,
      "▁Center": 5986,
      "▁prec": 5987,
      "build": 5988,
      "73": 5989,
      "HTML": 5990,
      "▁San": 5991,
      "▁countries": 5992,
      "aled": 5993,
      "token": 5994,
      "kt": 5995,
      "▁qual": 5996,
      "Last": 5997,
      "adow": 5998,
      "▁manufact": 5999,
      "idad": 6000,
      "jango": 6001,
      "Next": 6002,
      "xf": 6003,
      ".a": 6004,
      "▁porno": 6005,
      "▁PM": 6006,
      "erve": 6007,
      "iting": 6008,
      "_th": 6009,
      "ci": 6010,
      "=None": 6011,
      "gs": 6012,
      "▁login": 6013,
      "atives": 6014,
      "']);\n": 6015,
      "▁ill": 6016,
      "IA": 6017,
      "children": 6018,
      "DO": 6019,
      "▁levels": 6020,
      "▁{{": 6021,
      "▁looks": 6022,
      "▁\"#": 6023,
      "ToString": 6024,
      "▁necessary": 6025,
      "▁▁▁\n": 6026,
      "cell": 6027,
      "Entry": 6028,
      "▁'#": 6029,
      "▁extrem": 6030,
      "Selector": 6031,
      "▁placeholder": 6032,
      "Load": 6033,
      "▁released": 6034,
      "ORE": 6035,
      "Enumer": 6036,
      "▁TV": 6037,
      "SET": 6038,
      "inq": 6039,
      "Press": 6040,
      "▁Department": 6041,
      "▁properties": 6042,
      "▁respond": 6043,
      "Search": 6044,
      "ael": 6045,
      "▁requ": 6046,
      "▁Book": 6047,
      "/\n": 6048,
      "(st": 6049,
      "▁financial": 6050,
      "icket": 6051,
      "_input": 6052,
      "▁threat": 6053,
      "(in": 6054,
      "Strip": 6055,
      "71": 6056,
      "▁evidence": 6057,
      "));": 6058,
      "▁Bro": 6059,
      "▁[];\n": 6060,
      "▁ou": 6061,
      "buf": 6062,
      "Script": 6063,
      "dat": 6064,
      "▁rule": 6065,
      "#import": 6066,
      "=\"/": 6067,
      "Serial": 6068,
      "▁starting": 6069,
      "[index": 6070,
      "ae": 6071,
      "▁contrib": 6072,
      "session": 6073,
      "_new": 6074,
      "utable": 6075,
      "ober": 6076,
      "▁\"./": 6077,
      "▁logger": 6078,
      "▁recently": 6079,
      "▁returned": 6080,
      "\r\r\n": 6081,
      ")))\n": 6082,
      "itions": 6083,
      "▁seek": 6084,
      "▁communic": 6085,
      "▁\".": 6086,
      "▁username": 6087,
      "ECT": 6088,
      "DS": 6089,
      "▁otherwise": 6090,
      "▁German": 6091,
      ".aw": 6092,
      "Adapter": 6093,
      "ixel": 6094,
      "▁systems": 6095,
      "▁drop": 6096,
      "83": 6097,
      "▁structure": 6098,
      "▁$(\"#": 6099,
      "encies": 6100,
      "anning": 6101,
      "▁Link": 6102,
      "▁Response": 6103,
      "▁stri": 6104,
      "▁DB": 6105,
      "android": 6106,
      "submit": 6107,
      "otion": 6108,
      "92": 6109,
      "(@": 6110,
      ".test": 6111,
      "82": 6112,
      "\n\n\n\n\n\n\n\n": 6113,
      "];\r\n": 6114,
      "▁directly": 6115,
      "▁\"%": 6116,
      "ris": 6117,
      "elta": 6118,
      "AIL": 6119,
      "){\r\n": 6120,
      "mine": 6121,
      "▁▁▁▁▁▁▁▁▁▁▁▁▁▁▁▁▁▁▁▁▁▁▁▁▁▁": 6122,
      "(k": 6123,
      "bon": 6124,
      "asic": 6125,
      "pite": 6126,
      "___": 6127,
      "Max": 6128,
      "▁errors": 6129,
      "▁While": 6130,
      "▁arguments": 6131,
      "▁ensure": 6132,
      "Right": 6133,
      "-based": 6134,
      "Web": 6135,
      "▁-=": 6136,
      "▁introdu": 6137,
      "▁Inst": 6138,
      "▁Wash": 6139,
      "ordin": 6140,
      "join": 6141,
      "Database": 6142,
      "▁grad": 6143,
      "▁usually": 6144,
      "ITE": 6145,
      "Props": 6146,
      "?>\n": 6147,
      "▁Go": 6148,
      "@Override": 6149,
      "REF": 6150,
      "▁ip": 6151,
      "▁Austral": 6152,
      "▁ist": 6153,
      "ViewById": 6154,
      "▁serious": 6155,
      "▁customer": 6156,
      ".prototype": 6157,
      "odo": 6158,
      "cor": 6159,
      "▁door": 6160,
      "▁WITHOUT": 6161,
      "▁plant": 6162,
      "▁began": 6163,
      "▁distance": 6164,
      "()).": 6165,
      "▁chance": 6166,
      "▁ord": 6167,
      "came": 6168,
      "pragma": 6169,
      "▁protect": 6170,
      "ragment": 6171,
      "▁Node": 6172,
      "ening": 6173,
      "▁route": 6174,
      "▁School": 6175,
      "hi": 6176,
      "▁neighb": 6177,
      "After": 6178,
      "licit": 6179,
      "▁contr": 6180,
      "▁primary": 6181,
      "AA": 6182,
      ".WriteLine": 6183,
      "utils": 6184,
      "▁bi": 6185,
      "Red": 6186,
      ".Linq": 6187,
      ".object": 6188,
      "▁leaders": 6189,
      "unities": 6190,
      "▁gun": 6191,
      "onth": 6192,
      "▁Dev": 6193,
      "FILE": 6194,
      "▁comments": 6195,
      "_len": 6196,
      "arrow": 6197,
      "amount": 6198,
      "Range": 6199,
      "sert": 6200,
      "GridView": 6201,
      "▁updated": 6202,
      "▁Mo": 6203,
      "▁inform": 6204,
      "ociety": 6205,
      "ala": 6206,
      "Access": 6207,
      "▁hab": 6208,
      "▁creat": 6209,
      "_arg": 6210,
      "▁January": 6211,
      "▁Day": 6212,
      "\")\r\n": 6213,
      "uple": 6214,
      "document": 6215,
      "gorith": 6216,
      "menu": 6217,
      "▁Over": 6218,
      "bb": 6219,
      ".title": 6220,
      "_out": 6221,
      "▁led": 6222,
      "uri": 6223,
      "▁?></": 6224,
      "gl": 6225,
      "▁bank": 6226,
      "ayment": 6227,
      "\tprintf": 6228,
      "MD": 6229,
      "▁sample": 6230,
      "▁hands": 6231,
      "▁Version": 6232,
      "uario": 6233,
      "▁offers": 6234,
      "ityEngine": 6235,
      "▁shape": 6236,
      "▁sleep": 6237,
      "_point": 6238,
      "Settings": 6239,
      "▁achie": 6240,
      "▁sold": 6241,
      "ota": 6242,
      ".bind": 6243,
      "Am": 6244,
      "▁safe": 6245,
      "Store": 6246,
      "▁shared": 6247,
      "▁priv": 6248,
      "_VAL": 6249,
      "▁sens": 6250,
      "){": 6251,
      "▁remember": 6252,
      "shared": 6253,
      "element": 6254,
      "▁shoot": 6255,
      "Vert": 6256,
      "cout": 6257,
      "▁env": 6258,
      "_label": 6259,
      "▁>\n": 6260,
      "run": 6261,
      "▁scene": 6262,
      "(array": 6263,
      "device": 6264,
      "_title": 6265,
      "agon": 6266,
      "]\r\n": 6267,
      "aby": 6268,
      "▁became": 6269,
      "boolean": 6270,
      "▁park": 6271,
      "▁Code": 6272,
      "upload": 6273,
      "riday": 6274,
      "▁September": 6275,
      "Fe": 6276,
      "▁sen": 6277,
      "cing": 6278,
      "FL": 6279,
      "Col": 6280,
      "uts": 6281,
      "_page": 6282,
      "inn": 6283,
      "▁implied": 6284,
      "aling": 6285,
      "▁yourself": 6286,
      ".Count": 6287,
      "conf": 6288,
      "▁aud": 6289,
      "_init": 6290,
      ".)": 6291,
      "▁wrote": 6292,
      "003": 6293,
      "NG": 6294,
      ".Error": 6295,
      ".for": 6296,
      "▁equal": 6297,
      "▁Request": 6298,
      "▁serial": 6299,
      "▁allows": 6300,
      "XX": 6301,
      "▁middle": 6302,
      "chor": 6303,
      "195": 6304,
      "94": 6305,
      "erval": 6306,
      ".Column": 6307,
      "reading": 6308,
      "▁escort": 6309,
      "▁August": 6310,
      "▁quickly": 6311,
      "▁weap": 6312,
      "▁CG": 6313,
      "ropri": 6314,
      "ho": 6315,
      "▁cop": 6316,
      "(struct": 6317,
      "▁Big": 6318,
      "▁vs": 6319,
      "▁frequ": 6320,
      ".Value": 6321,
      "▁actions": 6322,
      "▁proper": 6323,
      "▁inn": 6324,
      "▁objects": 6325,
      "▁matrix": 6326,
      "avascript": 6327,
      "▁ones": 6328,
      ".group": 6329,
      "▁green": 6330,
      "▁paint": 6331,
      "ools": 6332,
      "ycl": 6333,
      "encode": 6334,
      "olt": 6335,
      "comment": 6336,
      ".api": 6337,
      "Dir": 6338,
      "▁une": 6339,
      "izont": 6340,
      ".position": 6341,
      "▁designed": 6342,
      "_val": 6343,
      "avi": 6344,
      "iring": 6345,
      "tab": 6346,
      "▁layer": 6347,
      "▁views": 6348,
      "▁reve": 6349,
      "rael": 6350,
      "▁ON": 6351,
      "rics": 6352,
      "160": 6353,
      "np": 6354,
      "▁core": 6355,
      "());\r\n": 6356,
      "Main": 6357,
      "▁expert": 6358,
      "\t\t\r\n": 6359,
      "_en": 6360,
      "▁/>": 6361,
      "utter": 6362,
      "IAL": 6363,
      "ails": 6364,
      "▁King": 6365,
      "*/\n\n": 6366,
      "▁Met": 6367,
      "_end": 6368,
      "addr": 6369,
      "ora": 6370,
      "▁ir": 6371,
      "Min": 6372,
      "▁surpr": 6373,
      "▁repe": 6374,
      "▁directory": 6375,
      "PUT": 6376,
      "-S": 6377,
      "▁election": 6378,
      "haps": 6379,
      ".pre": 6380,
      "cm": 6381,
      "Values": 6382,
      "▁\"\n": 6383,
      "column": 6384,
      "ivil": 6385,
      "Login": 6386,
      "inue": 6387,
      "93": 6388,
      "▁beautiful": 6389,
      "▁secret": 6390,
      "(event": 6391,
      "▁chat": 6392,
      "ums": 6393,
      "▁origin": 6394,
      "▁effects": 6395,
      "▁management": 6396,
      "illa": 6397,
      "tk": 6398,
      "▁setting": 6399,
      "▁Cour": 6400,
      "▁massage": 6401,
      "\tend": 6402,
      "▁happy": 6403,
      "▁finish": 6404,
      "▁camera": 6405,
      "▁Ver": 6406,
      "▁Democr": 6407,
      "▁Her": 6408,
      "(Q": 6409,
      "cons": 6410,
      "ita": 6411,
      "▁'.": 6412,
      "{}": 6413,
      "\tC": 6414,
      "▁stuff": 6415,
      "194": 6416,
      "▁:\n": 6417,
      "▁AR": 6418,
      "Task": 6419,
      "hidden": 6420,
      "eros": 6421,
      "IGN": 6422,
      "atio": 6423,
      "▁Health": 6424,
      "olute": 6425,
      "Enter": 6426,
      "'>": 6427,
      "▁Twitter": 6428,
      "▁County": 6429,
      "scribe": 6430,
      "▁=>\n": 6431,
      "▁hy": 6432,
      "fit": 6433,
      "▁military": 6434,
      "▁sale": 6435,
      "required": 6436,
      "non": 6437,
      "bootstrap": 6438,
      "hold": 6439,
      "rim": 6440,
      "-old": 6441,
      "▁Down": 6442,
      "▁mention": 6443,
      "contact": 6444,
      "_group": 6445,
      "oday": 6446,
      "▁town": 6447,
      "▁solution": 6448,
      "uate": 6449,
      "elling": 6450,
      "]->": 6451,
      "otes": 6452,
      "ental": 6453,
      "omen": 6454,
      "ospital": 6455,
      "▁Sup": 6456,
      "_EN": 6457,
      "▁slow": 6458,
      "SESSION": 6459,
      "▁blue": 6460,
      "ago": 6461,
      "▁lives": 6462,
      "▁^": 6463,
      ".un": 6464,
      "inst": 6465,
      "enge": 6466,
      "▁customers": 6467,
      "▁cast": 6468,
      "udget": 6469,
      "icens": 6470,
      "▁determin": 6471,
      "Selected": 6472,
      "_pl": 6473,
      "ueue": 6474,
      "▁dark": 6475,
      "//\n\n": 6476,
      "si": 6477,
      "thern": 6478,
      "▁Japan": 6479,
      "/w": 6480,
      "PU": 6481,
      "▁East": 6482,
      "ovie": 6483,
      "▁package": 6484,
      "▁nor": 6485,
      "▁api": 6486,
      "bot": 6487,
      "\"];\n": 6488,
      "_post": 6489,
      "ulate": 6490,
      "▁club": 6491,
      "'));\n": 6492,
      "▁loop": 6493,
      "PIO": 6494,
      "ione": 6495,
      "shot": 6496,
      "Initial": 6497,
      "▁played": 6498,
      "register": 6499,
      "rought": 6500,
      "_max": 6501,
      "acement": 6502,
      "match": 6503,
      "raphics": 6504,
      "AST": 6505,
      "▁existing": 6506,
      "▁complex": 6507,
      "DA": 6508,
      ".Ch": 6509,
      ".common": 6510,
      "mo": 6511,
      "▁'../../": 6512,
      "ito": 6513,
      "▁analysis": 6514,
      "▁deliver": 6515,
      "▁▁▁▁▁▁▁▁▁▁▁▁▁▁▁▁\n": 6516,
      "idx": 6517,
      "ongo": 6518,
      "▁English": 6519,
      "<!--": 6520,
      "▁computer": 6521,
      "ENSE": 6522,
      "▁pas": 6523,
      "▁rais": 6524,
      "Hash": 6525,
      "▁mobile": 6526,
      "▁owner": 6527,
      "FIG": 6528,
      "▁▁▁▁▁▁▁▁▁▁▁▁▁▁▁▁▁▁▁▁▁▁▁▁▁▁▁▁▁▁▁▁▁▁▁▁▁▁▁▁▁▁▁▁▁▁▁▁▁▁▁": 6529,
      "thes": 6530,
      "▁attr": 6531,
      "wd": 6532,
      ".time": 6533,
      "awn": 6534,
      "▁treatment": 6535,
      "▁Ac": 6536,
      ".View": 6537,
      "impl": 6538,
      "more": 6539,
      "pass": 6540,
      "▁ha": 6541,
      ".from": 6542,
      "▁leading": 6543,
      "FFFF": 6544,
      "(error": 6545,
      ".ui": 6546,
      "atar": 6547,
      "aders": 6548,
      "dates": 6549,
      "▁zu": 6550,
      "▁flow": 6551,
      "Target": 6552,
      "▁involved": 6553,
      "▁io": 6554,
      "parse": 6555,
      "$_": 6556,
      "hest": 6557,
      ".int": 6558,
      "-item": 6559,
      "asy": 6560,
      "Sp": 6561,
      "▁shift": 6562,
      "NT": 6563,
      "▁tf": 6564,
      "_TR": 6565,
      ".web": 6566,
      "CS": 6567,
      "▁})": 6568,
      "▁eyes": 6569,
      "125": 6570,
      "105": 6571,
      "_z": 6572,
      "');\r\n": 6573,
      "iforn": 6574,
      "▁{@": 6575,
      "▁nice": 6576,
      ".list": 6577,
      "▁▁▁▁\r\n": 6578,
      "▁floor": 6579,
      "▁redirect": 6580,
      "▁UK": 6581,
      "(['": 6582,
      "▁wish": 6583,
      "▁capt": 6584,
      "legal": 6585,
      "▁IO": 6586,
      "▁stage": 6587,
      ".String": 6588,
      "▁Afr": 6589,
      "igen": 6590,
      "▁SH": 6591,
      "Delete": 6592,
      "ells": 6593,
      "▁solid": 6594,
      "▁meeting": 6595,
      "▁worked": 6596,
      "▁editor": 6597,
      "iny": 6598,
      "_read": 6599,
      ".Id": 6600,
      "eff": 6601,
      "Offset": 6602,
      "cha": 6603,
      "USER": 6604,
      "\t\t▁▁▁": 6605,
      "ipped": 6606,
      "▁dict": 6607,
      "▁Run": 6608,
      ".hpp": 6609,
      "▁ang": 6610,
      "xml": 6611,
      "imple": 6612,
      "▁medical": 6613,
      "_token": 6614,
      "connect": 6615,
      "▁hour": 6616,
      "▁controller": 6617,
      "_message": 6618,
      "UID": 6619,
      "Gr": 6620,
      "anded": 6621,
      "_CH": 6622,
      "▁books": 6623,
      "▁speak": 6624,
      "aming": 6625,
      "▁mount": 6626,
      "Record": 6627,
      "\tstruct": 6628,
      ".Web": 6629,
      "ondon": 6630,
      "▁//\n": 6631,
      "▁felt": 6632,
      ".Auto": 6633,
      "idge": 6634,
      "_pos": 6635,
      "PR": 6636,
      "▁modern": 6637,
      "Collection": 6638,
      "_msg": 6639,
      "CD": 6640,
      "▁Lo": 6641,
      "▁seconds": 6642,
      "ibly": 6643,
      ".equals": 6644,
      "▁international": 6645,
      "#pragma": 6646,
      "ooth": 6647,
      "Writer": 6648,
      "iate": 6649,
      "▁cele": 6650,
      "▁Bit": 6651,
      "ivo": 6652,
      "ivery": 6653,
      "rd": 6654,
      "HECK": 6655,
      "▁cache": 6656,
      ".count": 6657,
      "▁roll": 6658,
      ".Read": 6659,
      "108": 6660,
      "RED": 6661,
      "▁setup": 6662,
      "izontal": 6663,
      "models": 6664,
      "argv": 6665,
      "▁considered": 6666,
      "=\"../": 6667,
      "settings": 6668,
      "▁Rel": 6669,
      "▁growth": 6670,
      "▁mix": 6671,
      "▁Washington": 6672,
      "▁plt": 6673,
      "▁IM": 6674,
      "▁turned": 6675,
      "▁DateTime": 6676,
      "▁Wed": 6677,
      "(url": 6678,
      "▁\"-": 6679,
      "▁letter": 6680,
      "Async": 6681,
      "▁▁▁▁▁▁▁▁▁▁▁▁▁▁▁▁▁▁▁▁▁▁▁▁▁▁▁▁": 6682,
      "▁October": 6683,
      "_line": 6684,
      "▁attention": 6685,
      "▁collect": 6686,
      "▁Hash": 6687,
      "▁imag": 6688,
      "Tree": 6689,
      "▁situation": 6690,
      "ette": 6691,
      "_no": 6692,
      "IVE": 6693,
      "▁von": 6694,
      ".target": 6695,
      "▁knowledge": 6696,
      "▁drive": 6697,
      ".post": 6698,
      "▁blood": 6699,
      "▁cit": 6700,
      "primary": 6701,
      "▁configuration": 6702,
      "tee": 6703,
      "▁photo": 6704,
      "isode": 6705,
      "Trace": 6706,
      "▁gave": 6707,
      "▁shot": 6708,
      "▁Air": 6709,
      "▁mother": 6710,
      "price": 6711,
      "▁morning": 6712,
      ")){\n": 6713,
      "-x": 6714,
      "▁trade": 6715,
      "▁desc": 6716,
      "▁&&\n": 6717,
      "▁parents": 6718,
      "Api": 6719,
      "ted": 6720,
      "wer": 6721,
      "▁sy": 6722,
      "▁Ke": 6723,
      "Parser": 6724,
      "ancy": 6725,
      "▁piece": 6726,
      "ifornia": 6727,
      "toString": 6728,
      "ran": 6729,
      "iding": 6730,
      "PTION": 6731,
      "comes": 6732,
      "/lic": 6733,
      ".client": 6734,
      "El": 6735,
      "Long": 6736,
      "▁professional": 6737,
      "rupt": 6738,
      "va": 6739,
      "▁completely": 6740,
      "▁practice": 6741,
      "002": 6742,
      "▁selection": 6743,
      "Rem": 6744,
      "ini": 6745,
      "▁cam": 6746,
      "REE": 6747,
      "▁sites": 6748,
      "pa": 6749,
      "ATUS": 6750,
      "arrant": 6751,
      "*(": 6752,
      "_KEY": 6753,
      "▁Button": 6754,
      "▁Friday": 6755,
      "sequ": 6756,
      "▁reader": 6757,
      "▁messages": 6758,
      "▁buf": 6759,
      "Ke": 6760,
      "▁nov": 6761,
      "HP": 6762,
      "Msg": 6763,
      "align": 6764,
      "arily": 6765,
      "▁',": 6766,
      "_with": 6767,
      "▁das": 6768,
      "▁heard": 6769,
      "atomic": 6770,
      "rial": 6771,
      ")[": 6772,
      "▁dise": 6773,
      "@end": 6774,
      "▁gold": 6775,
      "▁fair": 6776,
      "▁sales": 6777,
      ".Button": 6778,
      "strict": 6779,
      "save": 6780,
      "▁measure": 6781,
      "▁\"+": 6782,
      "ecause": 6783,
      "ViewController": 6784,
      "▁Table": 6785,
      ".param": 6786,
      "▁decided": 6787,
      "(((": 6788,
      "INFO": 6789,
      "▁opportunity": 6790,
      "Te": 6791,
      "ICENSE": 6792,
      "ccording": 6793,
      "ki": 6794,
      "▁UN": 6795,
      "▁contain": 6796,
      "▁manager": 6797,
      "▁pain": 6798,
      "▁Fire": 6799,
      "rome": 6800,
      "▁plans": 6801,
      "Found": 6802,
      "lay": 6803,
      "▁December": 6804,
      "▁influ": 6805,
      "rench": 6806,
      "▁▁▁▁▁▁▁▁▁▁▁▁▁▁▁▁▁▁▁▁▁▁▁▁▁▁▁▁▁▁▁▁▁": 6807,
      "azing": 6808,
      "brief": 6809,
      "call": 6810,
      "wood": 6811,
      "▁loaded": 6812,
      "▁grand": 6813,
      "/f": 6814,
      "imp": 6815,
      "_U": 6816,
      "127": 6817,
      "STR": 6818,
      "▁credit": 6819,
      ".Color": 6820,
      "orge": 6821,
      "QUEST": 6822,
      "▁difference": 6823,
      "▁PC": 6824,
      "wargs": 6825,
      "▁pub": 6826,
      "unday": 6827,
      "▁fra": 6828,
      ".max": 6829,
      "▁tried": 6830,
      "annels": 6831,
      "send": 6832,
      "▁reports": 6833,
      "▁adult": 6834,
      "▁consist": 6835,
      "▁Street": 6836,
      "▁Program": 6837,
      "SQL": 6838,
      "Matrix": 6839,
      "ouncil": 6840,
      "-A": 6841,
      "\tw": 6842,
      "▁whose": 6843,
      "▁relig": 6844,
      "▁Sex": 6845,
      "▁gives": 6846,
      "none": 6847,
      ".message": 6848,
      "(G": 6849,
      ".awt": 6850,
      "-right": 6851,
      "▁November": 6852,
      "ellig": 6853,
      "360": 6854,
      "utive": 6855,
      "overn": 6856,
      "▁easily": 6857,
      "▁ideas": 6858,
      "104": 6859,
      "/css": 6860,
      "lying": 6861,
      "elle": 6862,
      "Can": 6863,
      "_color": 6864,
      "▁pair": 6865,
      "ngth": 6866,
      "▁split": 6867,
      "140": 6868,
      "drop": 6869,
      "arty": 6870,
      "ona": 6871,
      "▁capital": 6872,
      "▁hear": 6873,
      "▁exists": 6874,
      "\tlog": 6875,
      "emo": 6876,
      "Run": 6877,
      "oi": 6878,
      "▁parser": 6879,
      "▁Method": 6880,
      "▁education": 6881,
      "[k": 6882,
      "▁library": 6883,
      ">\";\n": 6884,
      "_UN": 6885,
      "\tstd": 6886,
      "oded": 6887,
      "▁calls": 6888,
      "here": 6889,
      "Rel": 6890,
      "▁brand": 6891,
      "background": 6892,
      "ga": 6893,
      "_address": 6894,
      "_params": 6895,
      "Category": 6896,
      "103": 6897,
      "▁India": 6898,
      "_event": 6899,
      "▁ing": 6900,
      "Render": 6901,
      ".cl": 6902,
      "umpy": 6903,
      "▁pet": 6904,
      "FC": 6905,
      "▁Ant": 6906,
      "Ext": 6907,
      "▁charge": 6908,
      "ened": 6909,
      "grad": 6910,
      "EO": 6911,
      "▁depend": 6912,
      "▁.\n\n": 6913,
      "frame": 6914,
      "▁df": 6915,
      "▁huge": 6916,
      "▁PART": 6917,
      "eds": 6918,
      ";;": 6919,
      "▁AM": 6920,
      "▁basic": 6921,
      "▁Let": 6922,
      "lich": 6923,
      "▁arm": 6924,
      "▁star": 6925,
      "▁federal": 6926,
      "Work": 6927,
      "▁carry": 6928,
      "▁Israel": 6929,
      "(obj": 6930,
      "={{": 6931,
      "▁saved": 6932,
      "▁syn": 6933,
      "▁constant": 6934,
      "VENT": 6935,
      "▁positive": 6936,
      "▁conduct": 6937,
      "▁skin": 6938,
      "▁earlier": 6939,
      "▁layout": 6940,
      "▁IP": 6941,
      "OUR": 6942,
      "▁tim": 6943,
      "stylesheet": 6944,
      "_cl": 6945,
      "▁Card": 6946,
      "++){\n": 6947,
      "▁temper": 6948,
      "▁David": 6949,
      "\ttry": 6950,
      ".dart": 6951,
      "▁wants": 6952,
      "▁picture": 6953,
      "▁videos": 6954,
      "▁Comm": 6955,
      "isions": 6956,
      "_MAX": 6957,
      "Mapping": 6958,
      "-content": 6959,
      "▁Ear": 6960,
      "-de": 6961,
      "▁prem": 6962,
      "bruary": 6963,
      "▁components": 6964,
      "▁throughout": 6965,
      "▁pull": 6966,
      "▁pages": 6967,
      "ente": 6968,
      "respond": 6969,
      "▁gas": 6970,
      "criptor": 6971,
      "▁edge": 6972,
      "▁bound": 6973,
      "ACT": 6974,
      "******": 6975,
      "▁creating": 6976,
      "▁CH": 6977,
      "▁nullptr": 6978,
      "Br": 6979,
      "+'": 6980,
      ".co": 6981,
      ">::": 6982,
      "▁learning": 6983,
      ".Length": 6984,
      "_SH": 6985,
      "▁patients": 6986,
      "AIN": 6987,
      "▁kids": 6988,
      "▁comfort": 6989,
      "▁shown": 6990,
      "ugins": 6991,
      "▁Back": 6992,
      "ella": 6993,
      "_CL": 6994,
      "▁lat": 6995,
      "▁dispatch": 6996,
      "▁classes": 6997,
      ".at": 6998,
      ".begin": 6999,
      "▁successful": 7000,
      "ban": 7001,
      "▁obtain": 7002,
      "▁Sl": 7003,
      "▁lack": 7004,
      "iterator": 7005,
      "Thread": 7006,
      "(size": 7007,
      "▁none": 7008,
      ".has": 7009,
      "_X": 7010,
      "sort": 7011,
      "nap": 7012,
      "pet": 7013,
      "bin": 7014,
      "700": 7015,
      "▁Canada": 7016,
      "They": 7017,
      "▁dans": 7018,
      "▁Mat": 7019,
      "<td": 7020,
      "▁hair": 7021,
      "▁'',\n": 7022,
      "▁cu": 7023,
      "▁laws": 7024,
      "leted": 7025,
      "ped": 7026,
      "▁pow": 7027,
      "▁knew": 7028,
      "_COM": 7029,
      "_,": 7030,
      "▁Mag": 7031,
      "idents": 7032,
      "(req": 7033,
      "▁),": 7034,
      "-center": 7035,
      "190": 7036,
      "▁wide": 7037,
      "▁Author": 7038,
      "stants": 7039,
      "▁jobs": 7040,
      "▁math": 7041,
      "etimes": 7042,
      "Boolean": 7043,
      "▁scope": 7044,
      "_is": 7045,
      "▁meas": 7046,
      "▁keys": 7047,
      "elay": 7048,
      "▁exactly": 7049,
      "'=>'": 7050,
      "▁Paul": 7051,
      "mas": 7052,
      "\tprint": 7053,
      "(len": 7054,
      "fd": 7055,
      "▁);": 7056,
      ".Event": 7057,
      "qli": 7058,
      "irit": 7059,
      "ields": 7060,
      "oman": 7061,
      "▁Top": 7062,
      "▁vote": 7063,
      "▁mask": 7064,
      "▁theme": 7065,
      "-\n": 7066,
      "▁props": 7067,
      "▁fine": 7068,
      "▁writer": 7069,
      "_offset": 7070,
      "car": 7071,
      "▁altern": 7072,
      "▁copyright": 7073,
      "▁destroy": 7074,
      "pper": 7075,
      "▁generate": 7076,
      "pped": 7077,
      "▁▁▁▁▁▁\n": 7078,
      "make": 7079,
      "▁Show": 7080,
      "▁browser": 7081,
      "▁favorite": 7082,
      "▁career": 7083,
      "▁happened": 7084,
      "(char": 7085,
      "▁recommend": 7086,
      "▁liter": 7087,
      ".filter": 7088,
      "grade": 7089,
      "Phone": 7090,
      "oms": 7091,
      "▁named": 7092,
      "-label": 7093,
      "ipo": 7094,
      "▁Other": 7095,
      "▁panel": 7096,
      "▁rock": 7097,
      "Scale": 7098,
      "\tassert": 7099,
      "▁trust": 7100,
      "front": 7101,
      "▁demon": 7102,
      "Ar": 7103,
      "Net": 7104,
      "▁economic": 7105,
      "footer": 7106,
      "▁race": 7107,
      "(node": 7108,
      "▁Option": 7109,
      "split": 7110,
      "▁physical": 7111,
      "ifest": 7112,
      "▁removed": 7113,
      ".http": 7114,
      ")),\n": 7115,
      "▁looked": 7116,
      "';": 7117,
      "ding": 7118,
      "gest": 7119,
      "aturday": 7120,
      "/licenses": 7121,
      "Price": 7122,
      "▁dro": 7123,
      "▁towards": 7124,
      "▁uns": 7125,
      "▁CL": 7126,
      "\tstatic": 7127,
      "▁rows": 7128,
      "▁define": 7129,
      ".replace": 7130,
      "▁father": 7131,
      "▁Design": 7132,
      "assign": 7133,
      "mut": 7134,
      "Device": 7135,
      "Did": 7136,
      "'))\n": 7137,
      "ometry": 7138,
      "ayload": 7139,
      "▁histor": 7140,
      "▁Param": 7141,
      "▁Boolean": 7142,
      "▁nature": 7143,
      "▁js": 7144,
      "▁nation": 7145,
      "ih": 7146,
      "▁discover": 7147,
      "sem": 7148,
      "Handle": 7149,
      "\tr": 7150,
      "▁Techn": 7151,
      "▁wall": 7152,
      "{$": 7153,
      "@property": 7154,
      "▁\"../": 7155,
      "▁exam": 7156,
      ".draw": 7157,
      "opping": 7158,
      "▁nearly": 7159,
      "▁cool": 7160,
      "▁independ": 7161,
      "RES": 7162,
      "▁handler": 7163,
      "▁Monday": 7164,
      "▁sun": 7165,
      "Styles": 7166,
      "ously": 7167,
      "▁\t": 7168,
      "vest": 7169,
      "Display": 7170,
      "(y": 7171,
      "atically": 7172,
      "▁predict": 7173,
      "ying": 7174,
      "▁sometimes": 7175,
      "\"]\n": 7176,
      "▁drink": 7177,
      "▁bul": 7178,
      "ifications": 7179,
      ".insert": 7180,
      ".reg": 7181,
      "▁tests": 7182,
      "Alignment": 7183,
      "▁alleg": 7184,
      "▁attribute": 7185,
      "▁Note": 7186,
      "▁myself": 7187,
      "arts": 7188,
      "Now": 7189,
      "▁interesting": 7190,
      "lients": 7191,
      "▁population": 7192,
      "▁California": 7193,
      "\"I": 7194,
      "▁greater": 7195,
      "uesday": 7196,
      "▁thous": 7197,
      "▁costs": 7198,
      "▁launch": 7199,
      "\\Http": 7200,
      "ker": 7201,
      "band": 7202,
      "▁Play": 7203,
      "▁band": 7204,
      ".shape": 7205,
      "esome": 7206,
      "article": 7207,
      ".rf": 7208,
      "▁wer": 7209,
      "embers": 7210,
      "usr": 7211,
      "BA": 7212,
      "ican": 7213,
      "ett": 7214,
      "validate": 7215,
      "ulti": 7216,
      "▁immediately": 7217,
      "zer": 7218,
      "▁figure": 7219,
      "oes": 7220,
      "eller": 7221,
      "ircle": 7222,
      "▁Sign": 7223,
      ".db": 7224,
      "▁rank": 7225,
      "Bytes": 7226,
      "▁projects": 7227,
      "_rec": 7228,
      "ULAR": 7229,
      "API": 7230,
      "▁Line": 7231,
      "Port": 7232,
      "▁poll": 7233,
      "▁giving": 7234,
      "idence": 7235,
      "--\n": 7236,
      "▁plot": 7237,
      "icial": 7238,
      "▁warrant": 7239,
      "ITION": 7240,
      "▁Double": 7241,
      "▁billion": 7242,
      "gorithm": 7243,
      "▁equipment": 7244,
      "DATE": 7245,
      "▁@\"": 7246,
      "EE": 7247,
      "▁ple": 7248,
      "iation": 7249,
      "▁headers": 7250,
      "▁proced": 7251,
      ".ComponentModel": 7252,
      "▁Obama": 7253,
      "▁pa": 7254,
      "▁Best": 7255,
      "imately": 7256,
      ".getString": 7257,
      ".\\": 7258,
      "mploy": 7259,
      "▁raw": 7260,
      "_block": 7261,
      "undred": 7262,
      "\"},\n": 7263,
      "112": 7264,
      ".GroupLayout": 7265,
      "▁brought": 7266,
      "NSString": 7267,
      "throw": 7268,
      "created": 7269,
      ".New": 7270,
      "_view": 7271,
      "CP": 7272,
      "eps": 7273,
      "Op": 7274,
      "▁gratis": 7275,
      "▁'\"": 7276,
      "▁interview": 7277,
      "\"\"\"\n": 7278,
      "▁partial": 7279,
      "▁aria": 7280,
      "bing": 7281,
      "Author": 7282,
      "Book": 7283,
      "▁Pat": 7284,
      "uman": 7285,
      "Users": 7286,
      "plus": 7287,
      "193": 7288,
      "▁Direct": 7289,
      "venue": 7290,
      "alpha": 7291,
      "UCCESS": 7292,
      "▁Call": 7293,
      "▁);\r\n": 7294,
      "imated": 7295,
      "▁remain": 7296,
      "▁anti": 7297,
      "▁London": 7298,
      "▁safety": 7299,
      "POSE": 7300,
      "oles": 7301,
      "controller": 7302,
      "Byte": 7303,
      "▁Court": 7304,
      "▁Phil": 7305,
      "▁Associ": 7306,
      "ena": 7307,
      "_STR": 7308,
      "coin": 7309,
      "reshold": 7310,
      "▁batch": 7311,
      "_Click": 7312,
      "entication": 7313,
      ">';\n": 7314,
      "enty": 7315,
      "▁beginning": 7316,
      "▁zero": 7317,
      "▁Convert": 7318,
      "▁terr": 7319,
      "▁paid": 7320,
      "▁increased": 7321,
      "catch": 7322,
      "-size": 7323,
      "115": 7324,
      "activity": 7325,
      "equals": 7326,
      "▁queue": 7327,
      "▁\"'": 7328,
      "▁International": 7329,
      "ursday": 7330,
      "▁scient": 7331,
      "allow": 7332,
      "axis": 7333,
      "▁appropri": 7334,
      "edge": 7335,
      "▁idx": 7336,
      "Success": 7337,
      "entifier": 7338,
      ":\\": 7339,
      "xis": 7340,
      "▁maximum": 7341,
      "arks": 7342,
      "▁birth": 7343,
      "(index": 7344,
      "▁maybe": 7345,
      ".py": 7346,
      "files": 7347,
      "▁limited": 7348,
      "_check": 7349,
      "look": 7350,
      "plies": 7351,
      "▁movement": 7352,
      "'].": 7353,
      "▁broad": 7354,
      "▁BE": 7355,
      "▁UnityEngine": 7356,
      ".cpp": 7357,
      "▁Every": 7358,
      "Admin": 7359,
      "▁fans": 7360,
      "pared": 7361,
      "\n▁▁▁▁\n": 7362,
      "▁foreign": 7363,
      "▁pan": 7364,
      "▁tour": 7365,
      "▁Order": 7366,
      "▁moving": 7367,
      "▁auf": 7368,
      "Call": 7369,
      "cb": 7370,
      "ventory": 7371,
      "▁Sql": 7372,
      "▁fully": 7373,
      "ClickListener": 7374,
      "WORD": 7375,
      "▁announced": 7376,
      ")\r\n\r\n": 7377,
      "▁agreed": 7378,
      "rie": 7379,
      "▁earn": 7380,
      "_link": 7381,
      ".array": 7382,
      "(text": 7383,
      "▁materials": 7384,
      ",p": 7385,
      "ffff": 7386,
      "vg": 7387,
      "▁unless": 7388,
      "ajax": 7389,
      "LOG": 7390,
      "▁sexual": 7391,
      "▁\\\"": 7392,
      "-time": 7393,
      "▁coach": 7394,
      "▁supported": 7395,
      "▁photos": 7396,
      "iform": 7397,
      ".Create": 7398,
      ")]": 7399,
      "rier": 7400,
      "▁dialog": 7401,
      "aver": 7402,
      "ige": 7403,
      ")+": 7404,
      "_idx": 7405,
      ":[": 7406,
      "_min": 7407,
      "▁Cong": 7408,
      "▁pressure": 7409,
      "▁teams": 7410,
      "Sign": 7411,
      "begin": 7412,
      "rian": 7413,
      "NESS": 7414,
      "LS": 7415,
      "▁improve": 7416,
      "▁Sunday": 7417,
      "▁definition": 7418,
      "iger": 7419,
      "rollers": 7420,
      "▁thinking": 7421,
      "Template": 7422,
      "-F": 7423,
      "▁emerg": 7424,
      "plates": 7425,
      "▁USA": 7426,
      ".setState": 7427,
      "▁Also": 7428,
      "rev": 7429,
      "▁enable": 7430,
      "▁CO": 7431,
      "PECT": 7432,
      "▁concept": 7433,
      ")-": 7434,
      "▁sets": 7435,
      "▁meaning": 7436,
      "emon": 7437,
      "▁Cons": 7438,
      "cmp": 7439,
      "eder": 7440,
      "anned": 7441,
      "icensed": 7442,
      "▁Super": 7443,
      "▁daily": 7444,
      "▁multi": 7445,
      "_u": 7446,
      "▁challeng": 7447,
      "_mode": 7448,
      "▁Promise": 7449,
      "▁strict": 7450,
      "jo": 7451,
      "inton": 7452,
      "(list": 7453,
      "Only": 7454,
      ">{": 7455,
      "▁vehicle": 7456,
      "▁Player": 7457,
      "106": 7458,
      "▁Del": 7459,
      "▁pool": 7460,
      ".url": 7461,
      "nesday": 7462,
      "();\r\n\r\n": 7463,
      "900": 7464,
      "▁\");\n": 7465,
      "Local": 7466,
      ".\");\n": 7467,
      "▁organization": 7468,
      "render": 7469,
      "▁Application": 7470,
      "▁summer": 7471,
      "expected": 7472,
      "NA": 7473,
      "▁rap": 7474,
      "_obj": 7475,
      "▁surface": 7476,
      "▁PUR": 7477,
      "▁},\n\n": 7478,
      "▁variables": 7479,
      "(message": 7480,
      "▁opin": 7481,
      ".back": 7482,
      "▁workers": 7483,
      "vm": 7484,
      "Co": 7485,
      "ughter": 7486,
      "▁master": 7487,
      "▁\"\",": 7488,
      "▁stories": 7489,
      ".User": 7490,
      "▁celebr": 7491,
      "inese": 7492,
      "BS": 7493,
      "▁Command": 7494,
      "ashboard": 7495,
      "▁og": 7496,
      "kg": 7497,
      ".image": 7498,
      ".style": 7499,
      "▁steps": 7500,
      "▁Ben": 7501,
      "(args": 7502,
      "404": 7503,
      "▁Person": 7504,
      ",y": 7505,
      "▁officials": 7506,
      "|\n": 7507,
      "▁skills": 7508,
      "vc": 7509,
      "▁builder": 7510,
      "▁gar": 7511,
      "Account": 7512,
      "▁Auth": 7513,
      "'])\n": 7514,
      "▁AT": 7515,
      "nn": 7516,
      ".Int": 7517,
      "SSERT": 7518,
      "▁effective": 7519,
      "LETE": 7520,
      "▁tools": 7521,
      "ARD": 7522,
      "▁digital": 7523,
      "191": 7524,
      "Double": 7525,
      "▁Find": 7526,
      "RC": 7527,
      "▁inline": 7528,
      "/r": 7529,
      "ARAM": 7530,
      "ASK": 7531,
      "▁intent": 7532,
      "aight": 7533,
      "_addr": 7534,
      "▁requests": 7535,
      ".first": 7536,
      "▁debug": 7537,
      "▁spent": 7538,
      "()));\n": 7539,
      "▁princip": 7540,
      "Logger": 7541,
      "cludes": 7542,
      ".use": 7543,
      "▁surv": 7544,
      "media": 7545,
      "▁February": 7546,
      "▁Mac": 7547,
      "▁missing": 7548,
      "▁wife": 7549,
      "▁talking": 7550,
      "▁Make": 7551,
      "▁cart": 7552,
      "▁located": 7553,
      "Enc": 7554,
      "-a": 7555,
      "chron": 7556,
      "▁cards": 7557,
      "▁guy": 7558,
      "▁pers": 7559,
      "▁Yes": 7560,
      "atever": 7561,
      "▁Ang": 7562,
      "olar": 7563,
      "▁Even": 7564,
      "▁accur": 7565,
      "▁Power": 7566,
      "▁Gold": 7567,
      "clear": 7568,
      "Process": 7569,
      "▁records": 7570,
      "▁killed": 7571,
      ".clear": 7572,
      "▁WARRANTIES": 7573,
      "▁purpose": 7574,
      "panel": 7575,
      "JECT": 7576,
      "▁exerc": 7577,
      "WS": 7578,
      "/L": 7579,
      ".exports": 7580,
      "▁___": 7581,
      "▁sin": 7582,
      "Servlet": 7583,
      ".delete": 7584,
      "roke": 7585,
      "Sl": 7586,
      "ugh": 7587,
      "ears": 7588,
      "▁pointer": 7589,
      "▁hop": 7590,
      "allery": 7591,
      "▁obs": 7592,
      "covery": 7593,
      "\tchar": 7594,
      "\t\t\t\t\t\t\t\t\t\t": 7595,
      "\tdef": 7596,
      "ocity": 7597,
      "itchen": 7598,
      "ulations": 7599,
      "▁FIT": 7600,
      "▁).": 7601,
      "straints": 7602,
      "vention": 7603,
      "▁requires": 7604,
      "▁Oper": 7605,
      "ME": 7606,
      "OUNT": 7607,
      "allet": 7608,
      "▁norm": 7609,
      "IRE": 7610,
      "exas": 7611,
      "▁programs": 7612,
      "▁weak": 7613,
      "'.$": 7614,
      "uing": 7615,
      "\t▁▁▁▁▁▁▁": 7616,
      "▁mil": 7617,
      "▁firm": 7618,
      "initely": 7619,
      "_VALUE": 7620,
      "apse": 7621,
      "atisf": 7622,
      "▁demand": 7623,
      "_mod": 7624,
      "▁described": 7625,
      "▁places": 7626,
      "VID": 7627,
      "▁alone": 7628,
      "▁export": 7629,
      "▁vec": 7630,
      "▁Max": 7631,
      "▁activities": 7632,
      "ictures": 7633,
      "gener": 7634,
      "▁ma": 7635,
      "▁expression": 7636,
      "Callback": 7637,
      "_content": 7638,
      "▁Most": 7639,
      "▁testing": 7640,
      "EC": 7641,
      "CHANT": 7642,
      "▁adjust": 7643,
      ".Threading": 7644,
      "(ctx": 7645,
      "▁agree": 7646,
      "ighest": 7647,
      "▁ui": 7648,
      "▁Law": 7649,
      ".Y": 7650,
      "><?": 7651,
      "▁pod": 7652,
      "-lg": 7653,
      "▁describe": 7654,
      "▁European": 7655,
      "-sh": 7656,
      "▁PURPOSE": 7657,
      "ORY": 7658,
      "▁convers": 7659,
      "▁Illuminate": 7660,
      "▁Av": 7661,
      "(ch": 7662,
      "?\"": 7663,
      "chen": 7664,
      "ima": 7665,
      "Document": 7666,
      "▁operations": 7667,
      "win": 7668,
      "\tfunction": 7669,
      ".Image": 7670,
      "▁scen": 7671,
      "/h": 7672,
      "▁SC": 7673,
      "▁explo": 7674,
      ":%": 7675,
      "/**\r\n": 7676,
      "NAME": 7677,
      "(var": 7678,
      "▁director": 7679,
      "ONG": 7680,
      "▁yield": 7681,
      "▁feet": 7682,
      "▁Search": 7683,
      "▁Il": 7684,
      "▁restaur": 7685,
      "duc": 7686,
      "▁integer": 7687,
      "107": 7688,
      "▁'';\n": 7689,
      "▁highly": 7690,
      "checked": 7691,
      "▁PARTIC": 7692,
      "ERCHANT": 7693,
      "▁optim": 7694,
      "Queue": 7695,
      "▁LI": 7696,
      "itation": 7697,
      "▁transport": 7698,
      "ission": 7699,
      "fill": 7700,
      "usion": 7701,
      "▁▁▁▁▁▁▁▁▁▁▁▁▁▁▁▁▁▁▁▁▁▁▁▁▁▁▁▁▁▁": 7702,
      "\tbool": 7703,
      "-th": 7704,
      "upt": 7705,
      "▁essential": 7706,
      "anted": 7707,
      "▁benefits": 7708,
      "\tS": 7709,
      "';\r\n": 7710,
      "iki": 7711,
      "▁girls": 7712,
      "iced": 7713,
      "buffer": 7714,
      "]+": 7715,
      "▁socket": 7716,
      "▁prices": 7717,
      "▁Fre": 7718,
      "▁sat": 7719,
      "▁wood": 7720,
      "MenuItem": 7721,
      "ARG": 7722,
      "▁Admin": 7723,
      "OWN": 7724,
      "dk": 7725,
      "▁reset": 7726,
      "▁forms": 7727,
      "▁Tuesday": 7728,
      "109": 7729,
      "▁Initialized": 7730,
      "_train": 7731,
      "orary": 7732,
      "ategor": 7733,
      "▁dt": 7734,
      "Total": 7735,
      "construct": 7736,
      "ilies": 7737,
      "▁guys": 7738,
      "▁instruction": 7739,
      "010": 7740,
      "yled": 7741,
      "▁internet": 7742,
      "etadata": 7743,
      "ady": 7744,
      "faces": 7745,
      "jection": 7746,
      "▁Jack": 7747,
      "▁rect": 7748,
      "[-": 7749,
      "▁Leg": 7750,
      "▁devices": 7751,
      "OC": 7752,
      "▁*\r\n": 7753,
      "oration": 7754,
      "ertain": 7755,
      "▁guard": 7756,
      "ostream": 7757,
      "▁enum": 7758,
      ".layout": 7759,
      "▁\";\n": 7760,
      "voke": 7761,
      "▁Ok": 7762,
      "Home": 7763,
      "(tr": 7764,
      "ETH": 7765,
      "▁delay": 7766,
      "▁purchase": 7767,
      "dc": 7768,
      "▁aren": 7769,
      "_once": 7770,
      "\t\t\t\t\n": 7771,
      "ror": 7772,
      "draw": 7773,
      ".run": 7774,
      "(model": 7775,
      "Timeout": 7776,
      "lik": 7777,
      "▁Arg": 7778,
      ".en": 7779,
      "▁fish": 7780,
      "cpy": 7781,
      "_fe": 7782,
      "ERCHANTABILITY": 7783,
      "(X": 7784,
      "_output": 7785,
      "??": 7786,
      "▁jo": 7787,
      "andard": 7788,
      "▁doll": 7789,
      "errors": 7790,
      "_base": 7791,
      "▁PARTICULAR": 7792,
      "▁leader": 7793,
      "▁compar": 7794,
      "▁doub": 7795,
      "▁Vis": 7796,
      "StackTrace": 7797,
      "-C": 7798,
      "▁Stud": 7799,
      "stitute": 7800,
      "More": 7801,
      "▁Description": 7802,
      "WARE": 7803,
      "ads": 7804,
      "bind": 7805,
      "=self": 7806,
      "employ": 7807,
      "[n": 7808,
      ".all": 7809,
      "-B": 7810,
      "&&": 7811,
      "alm": 7812,
      "▁culture": 7813,
      "house": 7814,
      "▁suffer": 7815,
      "▁'%": 7816,
      "▁straight": 7817,
      "▁Star": 7818,
      "udo": 7819,
      "▁ded": 7820,
      "▁COM": 7821,
      "▁confirm": 7822,
      "▁Good": 7823,
      ".sc": 7824,
      "________________": 7825,
      "DR": 7826,
      "Configuration": 7827,
      "DateTime": 7828,
      "▁advert": 7829,
      "▁couldn": 7830,
      "async": 7831,
      "stack": 7832,
      "')\r\n": 7833,
      "Kit": 7834,
      "▁hous": 7835,
      "▁mechan": 7836,
      "rate": 7837,
      "204": 7838,
      "▁audio": 7839,
      "\tcout": 7840,
      "cores": 7841,
      "▁spot": 7842,
      "▁increasing": 7843,
      "▁##": 7844,
      ")))": 7845,
      "points": 7846,
      "▁compared": 7847,
      "lig": 7848,
      "▁behavior": 7849,
      "▁BY": 7850,
      "▁Att": 7851,
      "craft": 7852,
      "headers": 7853,
      "ete": 7854,
      "endregion": 7855,
      "▁detail": 7856,
      "ULE": 7857,
      "▁Common": 7858,
      "\tprotected": 7859,
      "ston": 7860,
      "▁FITNESS": 7861,
      "▁fresh": 7862,
      "\">\n\n": 7863,
      ".example": 7864,
      "berg": 7865,
      "▁moved": 7866,
      "\te": 7867,
      "▁Saturday": 7868,
      "▁payload": 7869,
      "):\n\n": 7870,
      "▁bey": 7871,
      "urer": 7872,
      "<script": 7873,
      "▁symbol": 7874,
      "▁assum": 7875,
      "▁pul": 7876,
      "Effect": 7877,
      "▁hundred": 7878,
      "Tool": 7879,
      "aked": 7880,
      "connection": 7881,
      "▁voice": 7882,
      "▁pd": 7883,
      "▁transaction": 7884,
      "▁links": 7885,
      "Err": 7886,
      "▁Indian": 7887,
      "TC": 7888,
      "atalog": 7889,
      "ni": 7890,
      "sign": 7891,
      "<<\"": 7892,
      "ji": 7893,
      "ya": 7894,
      "▁demonstr": 7895,
      "ulated": 7896,
      ".St": 7897,
      "▁instit": 7898,
      "▁boost": 7899,
      "▁cells": 7900,
      "olic": 7901,
      ".Pro": 7902,
      ":</": 7903,
      "EventListener": 7904,
      "ifying": 7905,
      "▁Di": 7906,
      "orrow": 7907,
      ".execute": 7908,
      "▁college": 7909,
      "Your": 7910,
      "▁largest": 7911,
      ".dis": 7912,
      "▁qui": 7913,
      "▁individuals": 7914,
      "_buffer": 7915,
      "▁ng": 7916,
      "SA": 7917,
      "▁Control": 7918,
      "▁sing": 7919,
      "▁suit": 7920,
      "▁▁▁▁\t": 7921,
      "SG": 7922,
      "▁jump": 7923,
      "▁smart": 7924,
      "oma": 7925,
      "▁Exp": 7926,
      "▁'-": 7927,
      "▁assist": 7928,
      "▁successfully": 7929,
      "sys": 7930,
      "▁Cre": 7931,
      "_ref": 7932,
      "▁Thursday": 7933,
      "▁bur": 7934,
      "▁beyond": 7935,
      "▁nodes": 7936,
      "Details": 7937,
      "inct": 7938,
      "▁James": 7939,
      "▁affect": 7940,
      "exception": 7941,
      "▁typeof": 7942,
      "(\r\n": 7943,
      "-se": 7944,
      "▁fetch": 7945,
      "`,": 7946,
      "▁crusher": 7947,
      "}.": 7948,
      "▁BO": 7949,
      "Show": 7950,
      "▁rates": 7951,
      "▁bon": 7952,
      "-icon": 7953,
      "▁Media": 7954,
      "RESS": 7955,
      "▁Valid": 7956,
      "▁fuck": 7957,
      "acks": 7958,
      "▁studies": 7959,
      "Me": 7960,
      "▁owners": 7961,
      "}else": 7962,
      "▁growing": 7963,
      "Variable": 7964,
      "▁Bel": 7965,
      ".random": 7966,
      "vement": 7967,
      "onym": 7968,
      "(F": 7969,
      "▁FALSE": 7970,
      "▁torch": 7971,
      "(row": 7972,
      "igo": 7973,
      "structure": 7974,
      "121": 7975,
      "▁certainly": 7976,
      "Dep": 7977,
      "▁Green": 7978,
      "question": 7979,
      "▁adding": 7980,
      "▁Develop": 7981,
      "_def": 7982,
      "▁mach": 7983,
      "=%": 7984,
      "\t\t▁": 7985,
      "conds": 7986,
      "Project": 7987,
      "▁reject": 7988,
      "▁poor": 7989,
      "▁aware": 7990,
      "114": 7991,
      "▁Build": 7992,
      "▁British": 7993,
      "▁NE": 7994,
      "▁numer": 7995,
      "rees": 7996,
      "claim": 7997,
      "▁mock": 7998,
      "▁om": 7999,
      "▁scre": 8000,
      "OLD": 8001,
      ".pl": 8002,
      "eler": 8003,
      "▁correspond": 8004,
      "_HE": 8005,
      "▁binary": 8006,
      "116": 8007,
      "_order": 8008,
      "▁SQL": 8009,
      "▁advant": 8010,
      "▁prev": 8011,
      ".[": 8012,
      ".assertEqual": 8013,
      "plier": 8014,
      "arp": 8015,
      "▁closed": 8016,
      "▁encour": 8017,
      "▁QString": 8018,
      "aud": 8019,
      "▁developed": 8020,
      "▁permission": 8021,
      ".debug": 8022,
      "operator": 8023,
      "▁'\n": 8024,
      "▁sym": 8025,
      "atively": 8026,
      "-color": 8027,
      "▁GET": 8028,
      "ky": 8029,
      "▁although": 8030,
      "_request": 8031,
      "_element": 8032,
      "................": 8033,
      "_DATA": 8034,
      "▁amazing": 8035,
      "▁sb": 8036,
      "▁Default": 8037,
      "Events": 8038,
      "▁failure": 8039,
      "acle": 8040,
      "Properties": 8041,
      "▁dream": 8042,
      "▁distr": 8043,
      "▁au": 8044,
      "▁generated": 8045,
      "▁Team": 8046,
      "USE": 8047,
      "▁income": 8048,
      "▁eye": 8049,
      "_not": 8050,
      "\"],": 8051,
      "_form": 8052,
      "Support": 8053,
      "orders": 8054,
      ".Print": 8055,
      "ville": 8056,
      "▁Wednesday": 8057,
      "olver": 8058,
      "▁oppos": 8059,
      "isation": 8060,
      "ola": 8061,
      "Close": 8062,
      "<p": 8063,
      "_width": 8064,
      "Invalid": 8065,
      "xb": 8066,
      "▁strugg": 8067,
      "_action": 8068,
      "▁txt": 8069,
      "▁Path": 8070,
      "alar": 8071,
      "▁MERCHANTABILITY": 8072,
      "service": 8073,
      "▁Michael": 8074,
      "ableView": 8075,
      "Debug": 8076,
      "okes": 8077,
      "She": 8078,
      "▁guess": 8079,
      "▁Java": 8080,
      "_PATH": 8081,
      "▁particularly": 8082,
      "▁II": 8083,
      "▁domain": 8084,
      "▁reduce": 8085,
      "-left": 8086,
      "real": 8087,
      "▁appears": 8088,
      "▁como": 8089,
      "▁Unit": 8090,
      "▁Govern": 8091,
      "ali": 8092,
      "allel": 8093,
      "▁Jew": 8094,
      "_I": 8095,
      "▁cos": 8096,
      ".color": 8097,
      "▁Global": 8098,
      "▁tele": 8099,
      "ben": 8100,
      "_trans": 8101,
      "▁reasons": 8102,
      "▁emb": 8103,
      "ensity": 8104,
      "lines": 8105,
      "omin": 8106,
      "Screen": 8107,
      "pects": 8108,
      "clip": 8109,
      "foo": 8110,
      "rent": 8111,
      "▁af": 8112,
      "▁danger": 8113,
      "iling": 8114,
      "Names": 8115,
      "Our": 8116,
      "▁distribution": 8117,
      "While": 8118,
      "SL": 8119,
      "Write": 8120,
      "▁goto": 8121,
      "▁colors": 8122,
      "▁powerful": 8123,
      "kin": 8124,
      "▁depth": 8125,
      "ercial": 8126,
      "▁Congress": 8127,
      "▁Market": 8128,
      "Db": 8129,
      "under": 8130,
      "▁Last": 8131,
      "greg": 8132,
      "▁posts": 8133,
      "_URL": 8134,
      "otos": 8135,
      "Don": 8136,
      "▁micro": 8137,
      "▁arrest": 8138,
      "▁(@": 8139,
      "▁Hot": 8140,
      "▁Index": 8141,
      ";&": 8142,
      "#!": 8143,
      "▁Nor": 8144,
      "▁Cap": 8145,
      "-(": 8146,
      "▁interested": 8147,
      "pear": 8148,
      "▁rent": 8149,
      "▁album": 8150,
      "olicy": 8151,
      ".lang": 8152,
      ".trans": 8153,
      ".format": 8154,
      "▁{\r\n\r\n": 8155,
      "phere": 8156,
      "▁axis": 8157,
      "▁Business": 8158,
      "ersistence": 8159,
      "urr": 8160,
      "▁minimum": 8161,
      "endor": 8162,
      "▁SD": 8163,
      "113": 8164,
      "▁Internet": 8165,
      "Exp": 8166,
      "iverse": 8167,
      "MM": 8168,
      "▁obvious": 8169,
      "▁basis": 8170,
      "▁science": 8171,
      "▁budget": 8172,
      "izations": 8173,
      "PA": 8174,
      "▁flags": 8175,
      "pret": 8176,
      "LOCK": 8177,
      "▁variety": 8178,
      "▁truth": 8179,
      "dt": 8180,
      "▁gone": 8181,
      "▁battle": 8182,
      "<std": 8183,
      "▁Sil": 8184,
      "rf": 8185,
      "uda": 8186,
      "▁erot": 8187,
      "▁Cam": 8188,
      "▁station": 8189,
      "▁'</": 8190,
      "cheme": 8191,
      "▁Sun": 8192,
      "▁finished": 8193,
      "▁shop": 8194,
      "▁Kore": 8195,
      "▁eight": 8196,
      "_REG": 8197,
      "ND": 8198,
      ">,": 8199,
      "\"><?": 8200,
      "(num": 8201,
      "\tinline": 8202,
      "Transaction": 8203,
      ".On": 8204,
      "▁mail": 8205,
      "rey": 8206,
      "results": 8207,
      "▁nav": 8208,
      "IMIT": 8209,
      "_ids": 8210,
      "Make": 8211,
      "Modal": 8212,
      "▁LOG": 8213,
      "▁Sur": 8214,
      "▁instanceof": 8215,
      "▁overall": 8216,
      "▁Information": 8217,
      "▁construction": 8218,
      "_FILE": 8219,
      "but": 8220,
      "▁medic": 8221,
      "▁duration": 8222,
      "itness": 8223,
      "agent": 8224,
      "AV": 8225,
      "▁seven": 8226,
      "olf": 8227,
      "▁}}\n": 8228,
      "\"],\n": 8229,
      "170": 8230,
      "122": 8231,
      "▁calling": 8232,
      "▁ans": 8233,
      "throws": 8234,
      "orizontal": 8235,
      "▁useState": 8236,
      ".fl": 8237,
      "▁Status": 8238,
      "▁Online": 8239,
      "RR": 8240,
      "▁Rich": 8241,
      "▁Hill": 8242,
      "▁brain": 8243,
      "▁followed": 8244,
      "240": 8245,
      "emic": 8246,
      "▁slight": 8247,
      "▁insurance": 8248,
      ".Array": 8249,
      "▁abstract": 8250,
      "▁Sum": 8251,
      "redirect": 8252,
      "owner": 8253,
      "(msg": 8254,
      "▁Clinton": 8255,
      "Non": 8256,
      "\tex": 8257,
      "▁volume": 8258,
      "▁EventArgs": 8259,
      "-L": 8260,
      "▁Dim": 8261,
      "▁Mart": 8262,
      "▁cursor": 8263,
      "▁implementation": 8264,
      "urred": 8265,
      "▁larger": 8266,
      ");\n\n\n": 8267,
      "'+": 8268,
      ".transform": 8269,
      "▁upload": 8270,
      "▁▁▁▁▁▁▁▁▁▁▁▁▁▁▁▁▁▁▁▁▁▁▁▁▁▁▁▁▁▁▁▁▁▁▁▁▁▁▁▁▁▁▁▁▁▁▁▁▁▁▁▁▁▁▁": 8271,
      "Draw": 8272,
      "nel": 8273,
      "\tfloat": 8274,
      "qrt": 8275,
      "▁Network": 8276,
      "▁tit": 8277,
      "Axis": 8278,
      ".android": 8279,
      "▁completed": 8280,
      "▁mur": 8281,
      "▁columns": 8282,
      "xc": 8283,
      "▁supply": 8284,
      "iminal": 8285,
      "▁spr": 8286,
      "================================================================": 8287,
      "▁units": 8288,
      "(u": 8289,
      "mi": 8290,
      "replace": 8291,
      "[key": 8292,
      "antic": 8293,
      "▁payment": 8294,
      ",B": 8295,
      "▁Apple": 8296,
      "gin": 8297,
      "Required": 8298,
      "#+": 8299,
      "lands": 8300,
      "▁squ": 8301,
      "▁factor": 8302,
      "dec": 8303,
      "▁strength": 8304,
      "▁boy": 8305,
      "▁balance": 8306,
      "▁sources": 8307,
      "screen": 8308,
      "-top": 8309,
      "▁Amazon": 8310,
      "▁hidden": 8311,
      "_client": 8312,
      "▁eat": 8313,
      ".display": 8314,
      "▁trigger": 8315,
      "anager": 8316,
      "▁tro": 8317,
      "▁claims": 8318,
      "ford": 8319,
      "▁Company": 8320,
      "▁gift": 8321,
      ",:": 8322,
      "_app": 8323,
      "handle": 8324,
      "▁produce": 8325,
      "/lib": 8326,
      "512": 8327,
      "▁-*": 8328,
      "\tset": 8329,
      "'];": 8330,
      "arc": 8331,
      "ander": 8332,
      "▁Engine": 8333,
      "▁attributes": 8334,
      "task": 8335,
      "<=": 8336,
      "(N": 8337,
      "▁warm": 8338,
      "which": 8339,
      "▁Fore": 8340,
      "agnost": 8341,
      "mys": 8342,
      "▁tal": 8343,
      "▁Sal": 8344,
      "gi": 8345,
      "▁Print": 8346,
      "▁TRUE": 8347,
      ".UI": 8348,
      "▁flash": 8349,
      "roperty": 8350,
      ".location": 8351,
      "▁Mill": 8352,
      "bi": 8353,
      "contr": 8354,
      ".request": 8355,
      "▁Sam": 8356,
      "▁negative": 8357,
      "kit": 8358,
      "▁sett": 8359,
      ".printStackTrace": 8360,
      "abe": 8361,
      "\ti": 8362,
      "▁burn": 8363,
      "▁society": 8364,
      "Cache": 8365,
      "▁Security": 8366,
      ".models": 8367,
      "▁WARRANTY": 8368,
      "_up": 8369,
      "ceive": 8370,
      "▁clients": 8371,
      ".Tr": 8372,
      "▁providing": 8373,
      "▁rout": 8374,
      "material": 8375,
      "▁||\n": 8376,
      "▁Ser": 8377,
      "▁Office": 8378,
      "FTWARE": 8379,
      "▁'$": 8380,
      "▁foc": 8381,
      "▁excell": 8382,
      "▁cat": 8383,
      "normal": 8384,
      "▁determine": 8385,
      "\tuint": 8386,
      "Pane": 8387,
      "▁employees": 8388,
      "▁Texas": 8389,
      "▁traff": 8390,
      "▁Report": 8391,
      "anta": 8392,
      "▁Box": 8393,
      "▁django": 8394,
      "▁partner": 8395,
      "EB": 8396,
      "LINE": 8397,
      "▁feeling": 8398,
      "▁civil": 8399,
      "(float": 8400,
      "Sql": 8401,
      "▁wouldn": 8402,
      ".init": 8403,
      ".left": 8404,
      "-v": 8405,
      "_level": 8406,
      "'}": 8407,
      "AF": 8408,
      "▁loading": 8409,
      "▁Only": 8410,
      "▁cookies": 8411,
      "▁Gl": 8412,
      "CO": 8413,
      "▁strategy": 8414,
      "('./": 8415,
      "▁ship": 8416,
      "poses": 8417,
      "▁signal": 8418,
      "▁alpha": 8419,
      ".pop": 8420,
      "Radius": 8421,
      "▁replace": 8422,
      "_DIR": 8423,
      "counter": 8424,
      "bservable": 8425,
      "ela": 8426,
      "Weight": 8427,
      "hash": 8428,
      "bose": 8429,
      "fx": 8430,
      "▁Email": 8431,
      "▁refer": 8432,
      "localhost": 8433,
      "_RO": 8434,
      "iques": 8435,
      "Step": 8436,
      "▁ahead": 8437,
      "(View": 8438,
      "▁Services": 8439,
      "▁Json": 8440,
      "essor": 8441,
      "▁pun": 8442,
      "▁appropriate": 8443,
      "akers": 8444,
      "osen": 8445,
      "posing": 8446,
      "▁agent": 8447,
      "fc": 8448,
      "▁transfer": 8449,
      "▁invalid": 8450,
      "▁Research": 8451,
      "Vertex": 8452,
      "▁gay": 8453,
      "▁journal": 8454,
      "[x": 8455,
      "▁\"\",\n": 8456,
      "▁Well": 8457,
      ".Tasks": 8458,
      "Spec": 8459,
      "▁ol": 8460,
      "▁spend": 8461,
      "▁Australia": 8462,
      "Match": 8463,
      ".junit": 8464,
      "▁▁▁▁▁▁▁▁▁▁▁▁▁▁▁▁▁▁▁▁▁▁▁▁▁▁▁▁▁▁▁▁▁▁▁▁▁": 8465,
      "▁MAX": 8466,
      "izable": 8467,
      "clusive": 8468,
      "_valid": 8469,
      "▁quarter": 8470,
      "yan": 8471,
      "005": 8472,
      "▁Edit": 8473,
      "arden": 8474,
      "=new": 8475,
      "▁frag": 8476,
      "Bit": 8477,
      "zi": 8478,
      "aine": 8479,
      "udd": 8480,
      ".Object": 8481,
      "debug": 8482,
      "▁cash": 8483,
      "_IM": 8484,
      "▁een": 8485,
      "▁commercial": 8486,
      "▁Video": 8487,
      "loader": 8488,
      "▁fixed": 8489,
      "▁applications": 8490,
      "▁_,": 8491,
      "▁Russia": 8492,
      "itect": 8493,
      "_(": 8494,
      "▁Block": 8495,
      "▁san": 8496,
      "▁Tom": 8497,
      "▁perhaps": 8498,
      "▁sig": 8499,
      "levant": 8500,
      "▁corpor": 8501,
      "ataset": 8502,
      "ronic": 8503,
      "xe": 8504,
      "▁eth": 8505,
      "Some": 8506,
      "pop": 8507,
      "_OK": 8508,
      "▁tend": 8509,
      ".Res": 8510,
      "_and": 8511,
      "▁reviews": 8512,
      "▁wild": 8513,
      "117": 8514,
      "▁degree": 8515,
      ".O": 8516,
      ".objects": 8517,
      "_args": 8518,
      "nil": 8519,
      "▁disabled": 8520,
      "Parent": 8521,
      "▁notes": 8522,
      "▁\"\"\n": 8523,
      "(state": 8524,
      "istrict": 8525,
      "▁logging": 8526,
      ".IO": 8527,
      "▁Mal": 8528,
      "DM": 8529,
      "▁xml": 8530,
      "▁Robert": 8531,
      "elen": 8532,
      "layout": 8533,
      "fol": 8534,
      "']))": 8535,
      ",b": 8536,
      "▁Jer": 8537,
      "filename": 8538,
      "▁fan": 8539,
      "▁Custom": 8540,
      "=\"\"": 8541,
      "▁Die": 8542,
      "Bundle": 8543,
      ".utils": 8544,
      "▁trip": 8545,
      "MB": 8546,
      "▁soft": 8547,
      "_MODE": 8548,
      "▁applicable": 8549,
      "▁upper": 8550,
      "ERVER": 8551,
      "_al": 8552,
      "_LOG": 8553,
      "Here": 8554,
      "wp": 8555,
      "▁Server": 8556,
      "▁Client": 8557,
      "▁chem": 8558,
      "Scroll": 8559,
      "▁highest": 8560,
      "▁Select": 8561,
      "▁\"@": 8562,
      "▁Why": 8563,
      "Sec": 8564,
      "heel": 8565,
      "Operation": 8566,
      "▁connected": 8567,
      "irmed": 8568,
      "▁citiz": 8569,
      "▁Che": 8570,
      "▁forces": 8571,
      "▁www": 8572,
      "Root": 8573,
      "ANCE": 8574,
      "Many": 8575,
      "icip": 8576,
      "rgan": 8577,
      "220": 8578,
      "▁Tor": 8579,
      "▁Press": 8580,
      "▁Mor": 8581,
      "-line": 8582,
      "uled": 8583,
      ">\\": 8584,
      "▁thus": 8585,
      "▁Register": 8586,
      "hol": 8587,
      "▁Chinese": 8588,
      "▁posted": 8589,
      "▁magn": 8590,
      "abilities": 8591,
      "▁disease": 8592,
      "▁remains": 8593,
      "▁Prof": 8594,
      "-form": 8595,
      "▁cin": 8596,
      "organ": 8597,
      "icate": 8598,
      "▁stress": 8599,
      "]*": 8600,
      "▁----------------------------------------------------------------": 8601,
      "_context": 8602,
      "orry": 8603,
      "▁died": 8604,
      "mat": 8605,
      "▁starts": 8606,
      ".Message": 8607,
      "▁runs": 8608,
      "▁guide": 8609,
      "▁warranty": 8610,
      "entials": 8611,
      "dict": 8612,
      "▁Size": 8613,
      "uler": 8614,
      "▁responsible": 8615,
      "_SET": 8616,
      "▁containing": 8617,
      "▁Price": 8618,
      "||": 8619,
      "350": 8620,
      "FS": 8621,
      "▁emp": 8622,
      "_button": 8623,
      "(uint": 8624,
      "▁suff": 8625,
      "pth": 8626,
      "▁definitely": 8627,
      "pute": 8628,
      "▁marketing": 8629,
      "▁WH": 8630,
      "▁Sie": 8631,
      "+=": 8632,
      "OLOR": 8633,
      "▁consult": 8634,
      "▁signed": 8635,
      "▁sequence": 8636,
      "lee": 8637,
      "▁requirements": 8638,
      "hy": 8639,
      "Express": 8640,
      "MT": 8641,
      "sey": 8642,
      "▁ult": 8643,
      "elligence": 8644,
      "▁analy": 8645,
      "▁dress": 8646,
      "engine": 8647,
      "▁Great": 8648,
      "▁Android": 8649,
      "▁Alex": 8650,
      "mode": 8651,
      "Dictionary": 8652,
      ".Date": 8653,
      "VICE": 8654,
      "▁families": 8655,
      "▁Russian": 8656,
      "▁Times": 8657,
      ".call": 8658,
      "$(": 8659,
      "Profile": 8660,
      "▁folder": 8661,
      "ches": 8662,
      "▁legis": 8663,
      "_row": 8664,
      "unes": 8665,
      "▁}).": 8666,
      "Assert": 8667,
      "agen": 8668,
      "▁Hand": 8669,
      "Iter": 8670,
      "▁biggest": 8671,
      "oreach": 8672,
      "▁polic": 8673,
      "▁permissions": 8674,
      "▁showed": 8675,
      "▁Element": 8676,
      "▁topic": 8677,
      "road": 8678,
      "▁Bank": 8679,
      "record": 8680,
      "▁partners": 8681,
      "▁Ref": 8682,
      "essions": 8683,
      "▁assess": 8684,
      "UST": 8685,
      "▁Party": 8686,
      "produ": 8687,
      "LC": 8688,
      "▁ul": 8689,
      ".form": 8690,
      "hide": 8691,
      "copy": 8692,
      "UTF": 8693,
      "▁SOFTWARE": 8694,
      "\r\n\r\n\r\n": 8695,
      "▁Lin": 8696,
      "una": 8697,
      "ugar": 8698,
      "▁administration": 8699,
      "▁opening": 8700,
      "▁scan": 8701,
      "▁continued": 8702,
      "component": 8703,
      ".sp": 8704,
      "▁happens": 8705,
      "ummy": 8706,
      "▁PR": 8707,
      ".File": 8708,
      "▁Download": 8709,
      "Loading": 8710,
      "di": 8711,
      "▁waiting": 8712,
      "_ADD": 8713,
      "Tab": 8714,
      ".querySelector": 8715,
      "▁economy": 8716,
      "▁French": 8717,
      "txt": 8718,
      "▁fant": 8719,
      "_;\n": 8720,
      "Holder": 8721,
      "SH": 8722,
      "004": 8723,
      "▁numpy": 8724,
      "▁street": 8725,
      "▁male": 8726,
      "\\Model": 8727,
      "anging": 8728,
      "333": 8729,
      "▁Bill": 8730,
      "▁previously": 8731,
      "BI": 8732,
      "▁Secret": 8733,
      "▁mist": 8734,
      "▁Field": 8735,
      "ups": 8736,
      "▁Process": 8737,
      "▁kept": 8738,
      "▁OT": 8739,
      "▁traditional": 8740,
      ".i": 8741,
      "amin": 8742,
      "▁helps": 8743,
      "Any": 8744,
      "origin": 8745,
      "ilters": 8746,
      "ju": 8747,
      "desc": 8748,
      "▁Account": 8749,
      "▁)\r\n": 8750,
      "ktop": 8751,
      "olly": 8752,
      "▁fs": 8753,
      "▁ut": 8754,
      "▁central": 8755,
      "(test": 8756,
      ".An": 8757,
      "▁satisf": 8758,
      "GR": 8759,
      "▁Full": 8760,
      "▁heat": 8761,
      "iber": 8762,
      "▁onto": 8763,
      "mos": 8764,
      "Schema": 8765,
      "▁factory": 8766,
      "\".$": 8767,
      "aws": 8768,
      "Statement": 8769,
      "(target": 8770,
      "\tnew": 8771,
      ".be": 8772,
      "▁guest": 8773,
      "▁mal": 8774,
      "ARY": 8775,
      "▁reached": 8776,
      "▁mouse": 8777,
      "▁challenge": 8778,
      "\tdouble": 8779,
      "▁Tem": 8780,
      "▁terror": 8781,
      "▁extract": 8782,
      "_TO": 8783,
      "▁separate": 8784,
      "▁mir": 8785,
      "help": 8786,
      "▁capacity": 8787,
      "▁Property": 8788,
      "kan": 8789,
      "_create": 8790,
      "▁Light": 8791,
      ".parent": 8792,
      "▁understanding": 8793,
      "▁easier": 8794,
      "▁|=": 8795,
      "▁enh": 8796,
      "▁fat": 8797,
      "▁protest": 8798,
      "amm": 8799,
      "_AT": 8800,
      "-of": 8801,
      "ils": 8802,
      "▁Oh": 8803,
      "▁psych": 8804,
      "▁$.": 8805,
      "inds": 8806,
      "▁relative": 8807,
      "shop": 8808,
      "short": 8809,
      "▁Sand": 8810,
      "210": 8811,
      "uestion": 8812,
      "▁fear": 8813,
      "/\n\n": 8814,
      ".context": 8815,
      "▁schools": 8816,
      "▁serve": 8817,
      "zone": 8818,
      "_db": 8819,
      "▁majority": 8820,
      "example": 8821,
      "▁lang": 8822,
      "\t▁▁": 8823,
      "Register": 8824,
      "endo": 8825,
      "▁processing": 8826,
      "_template": 8827,
      "-user": 8828,
      "▁eg": 8829,
      "COM": 8830,
      "▁Blue": 8831,
      "iro": 8832,
      "▁remote": 8833,
      "▁IT": 8834,
      "#!/": 8835,
      "▁redistrib": 8836,
      "124": 8837,
      "raz": 8838,
      "▁Since": 8839,
      "▁Tur": 8840,
      "135": 8841,
      "Background": 8842,
      "===": 8843,
      "▁reflect": 8844,
      "▁pros": 8845,
      "cmd": 8846,
      "▁whom": 8847,
      "Compat": 8848,
      "▁Are": 8849,
      "Identifier": 8850,
      "▁Thom": 8851,
      "_port": 8852,
      "gu": 8853,
      "▁monitor": 8854,
      "rm": 8855,
      "▁patient": 8856,
      "verter": 8857,
      "▁gain": 8858,
      "-ui": 8859,
      "Inst": 8860,
      "▁dies": 8861,
      "118": 8862,
      "Area": 8863,
      "_filter": 8864,
      "▁grat": 8865,
      "▁reality": 8866,
      "ordinate": 8867,
      "olved": 8868,
      "Contact": 8869,
      "▁compliance": 8870,
      "_or": 8871,
      "▁Var": 8872,
      "dl": 8873,
      "▁append": 8874,
      "GER": 8875,
      "(max": 8876,
      ".render": 8877,
      "▁dynamic": 8878,
      "ordinates": 8879,
      "_options": 8880,
      "_column": 8881,
      "▁batter": 8882,
      "space": 8883,
      "La": 8884,
      "▁Source": 8885,
      "/bin": 8886,
      "▁dos": 8887,
      "▁Board": 8888,
      "▁Thread": 8889,
      "▁AL": 8890,
      "(config": 8891,
      "144": 8892,
      "▁Mer": 8893,
      "▁miles": 8894,
      "_header": 8895,
      "ETHOD": 8896,
      "izz": 8897,
      "▁benefit": 8898,
      "▁integr": 8899,
      "(current": 8900,
      "ulo": 8901,
      ".default": 8902,
      "▁Div": 8903,
      "▁ton": 8904,
      "oth": 8905,
      "ervation": 8906,
      "edom": 8907,
      "▁baby": 8908,
      "ceived": 8909,
      ".top": 8910,
      "riority": 8911,
      "▁Local": 8912,
      "riage": 8913,
      "▁attacks": 8914,
      "▁hospital": 8915,
      "168": 8916,
      "▁female": 8917,
      "▁Login": 8918,
      "▁Flor": 8919,
      "▁chain": 8920,
      "ashion": 8921,
      "Texture": 8922,
      "Save": 8923,
      "▁farm": 8924,
      ".contains": 8925,
      ".Test": 8926,
      "▁knows": 8927,
      "▁generally": 8928,
      "ipeline": 8929,
      "▁meant": 8930,
      "encia": 8931,
      "▁nicht": 8932,
      "▁contents": 8933,
      "PM": 8934,
      "chedule": 8935,
      "(line": 8936,
      "CG": 8937,
      "job": 8938,
      "▁Real": 8939,
      "uer": 8940,
      "firm": 8941,
      "etro": 8942,
      "\"`\n": 8943,
      "▁speech": 8944,
      "▁thr": 8945,
      "foreach": 8946,
      "▁warn": 8947,
      "\tl": 8948,
      "▁heavy": 8949,
      "<li": 8950,
      "Ne": 8951,
      "▁investigation": 8952,
      "Math": 8953,
      "-title": 8954,
      "▁church": 8955,
      "▁despite": 8956,
      "chain": 8957,
      "▁whatever": 8958,
      "arian": 8959,
      "fn": 8960,
      "▁meta": 8961,
      "})\n\n": 8962,
      "UFF": 8963,
      "▁regarding": 8964,
      "_SUCCESS": 8965,
      "mes": 8966,
      "▁Intent": 8967,
      "▁resolve": 8968,
      "poss": 8969,
      "ira": 8970,
      "force": 8971,
      "oice": 8972,
      "▁pm": 8973,
      "▁updates": 8974,
      "Arr": 8975,
      "testing": 8976,
      "▁toward": 8977,
      "ntax": 8978,
      "▁listen": 8979,
      "▁goals": 8980,
      "InstanceState": 8981,
      "Dr": 8982,
      "▁rare": 8983,
      "▁trail": 8984,
      "Keys": 8985,
      "Cal": 8986,
      "Car": 8987,
      "▁People": 8988,
      "\tlocal": 8989,
      "classes": 8990,
      "Reference": 8991,
      ".forEach": 8992,
      "emb": 8993,
      "activ": 8994,
      "▁prim": 8995,
      "redict": 8996,
      "▁rad": 8997,
      ".Back": 8998,
      "▁spread": 8999,
      "▁clock": 9000,
      "▁vir": 9001,
      "editor": 9002,
      "▁efforts": 9003,
      "▁branch": 9004,
      "▁indust": 9005,
      "▁motor": 9006,
      "▁amb": 9007,
      "▁datetime": 9008,
      "▁rencont": 9009,
      "▁Christian": 9010,
      "▁Americans": 9011,
      "full": 9012,
      "▁fmt": 9013,
      ".main": 9014,
      "▁caused": 9015,
      "_update": 9016,
      "▁Content": 9017,
      "ATCH": 9018,
      "▁bath": 9019,
      "▁Each": 9020,
      "▁radio": 9021,
      "achment": 9022,
      "uzz": 9023,
      "Submit": 9024,
      "▁restrict": 9025,
      "abin": 9026,
      "▁Load": 9027,
      "▁extension": 9028,
      "▁essay": 9029,
      "▁hat": 9030,
      "aviour": 9031,
      "toBe": 9032,
      "\":[": 9033,
      "▁offered": 9034,
      "▁vill": 9035,
      "(double": 9036,
      "119": 9037,
      "bc": 9038,
      "_free": 9039,
      "▁Miss": 9040,
      "▁Ber": 9041,
      "▁Like": 9042,
      "▁helped": 9043,
      ".getName": 9044,
      "_AL": 9045,
      "▁spirit": 9046,
      "▁Apache": 9047,
      "ws": 9048,
      "▁therefore": 9049,
      "(params": 9050,
      "_img": 9051,
      "▁peace": 9052,
      "▁incor": 9053,
      "▁EXPECT": 9054,
      "▁minor": 9055,
      "ipes": 9056,
      "\tdata": 9057,
      "selector": 9058,
      "city": 9059,
      "trie": 9060,
      ".base": 9061,
      "_frame": 9062,
      "▁opened": 9063,
      "/json": 9064,
      "LY": 9065,
      "nu": 9066,
      ".De": 9067,
      "tf": 9068,
      "margin": 9069,
      ".Parse": 9070,
      "▁pi": 9071,
      "▁eq": 9072,
      "bd": 9073,
      "Fields": 9074,
      "▁Tree": 9075,
      "▁ban": 9076,
      "istan": 9077,
      "\n▁▁▁▁▁▁▁▁\n": 9078,
      "\tgl": 9079,
      "▁produced": 9080,
      "system": 9081,
      "Mark": 9082,
      "_hash": 9083,
      "▁bg": 9084,
      "▁constit": 9085,
      "▁League": 9086,
      "▁mission": 9087,
      "_format": 9088,
      "([\n": 9089,
      "clusion": 9090,
      "!\"": 9091,
      "break": 9092,
      "\tswitch": 9093,
      "▁ther": 9094,
      "Transform": 9095,
      "▁football": 9096,
      "-link": 9097,
      "route": 9098,
      ".auth": 9099,
      "▁bag": 9100,
      "overs": 9101,
      "▁enabled": 9102,
      "▁rac": 9103,
      "(I": 9104,
      "CR": 9105,
      "ancing": 9106,
      "▁managed": 9107,
      "_q": 9108,
      "NGTH": 9109,
      "▁mac": 9110,
      "▁Auto": 9111,
      "amente": 9112,
      "▁'',": 9113,
      ".Append": 9114,
      "▁pin": 9115,
      ".item": 9116,
      "acking": 9117,
      "▁occas": 9118,
      "person": 9119,
      "▁ti": 9120,
      ".Reg": 9121,
      "▁haven": 9122,
      "▁glass": 9123,
      "▁\"</": 9124,
      "▁Simple": 9125,
      "Print": 9126,
      "▁surround": 9127,
      "NO": 9128,
      "▁▁▁▁▁▁▁▁\r\n": 9129,
      "▁Many": 9130,
      "▁\"_": 9131,
      "▁weekend": 9132,
      "▁somew": 9133,
      ".params": 9134,
      "small": 9135,
      "ATED": 9136,
      "▁plugin": 9137,
      "fields": 9138,
      "▁Initialize": 9139,
      "oon": 9140,
      "atile": 9141,
      "ye": 9142,
      "▁vous": 9143,
      "LAG": 9144,
      "▁older": 9145,
      "▁gam": 9146,
      "▁extremely": 9147,
      "▁het": 9148,
      "enum": 9149,
      "▁SET": 9150,
      "xff": 9151,
      "▁timer": 9152,
      "/index": 9153,
      "▁critical": 9154,
      "Rows": 9155,
      "_argument": 9156,
      "▁execute": 9157,
      "▁showing": 9158,
      ".xml": 9159,
      "-list": 9160,
      "Role": 9161,
      "typename": 9162,
      "_method": 9163,
      "that": 9164,
      "cher": 9165,
      "XT": 9166,
      "▁thousands": 9167,
      "\tn": 9168,
      "▁resp": 9169,
      "_price": 9170,
      "olut": 9171,
      "Ag": 9172,
      "▁Two": 9173,
      "▁becomes": 9174,
      "▁hus": 9175,
      ".Use": 9176,
      "theme": 9177,
      "urb": 9178,
      "▁/*\n": 9179,
      "erialize": 9180,
      "ARN": 9181,
      "▁lose": 9182,
      "Lower": 9183,
      "▁vel": 9184,
      "▁defense": 9185,
      "condition": 9186,
      "▁bes": 9187,
      "▁dry": 9188,
      "▁scroll": 9189,
      ".Show": 9190,
      "IEL": 9191,
      "▁Rest": 9192,
      "Where": 9193,
      "oods": 9194,
      "▁Jes": 9195,
      "▁wire": 9196,
      "_INFO": 9197,
      "▁strings": 9198,
      "gment": 9199,
      "▁matches": 9200,
      "▁electric": 9201,
      "▁excellent": 9202,
      "▁Council": 9203,
      "idade": 9204,
      "▁wx": 9205,
      "push": 9206,
      "_entry": 9207,
      "▁tasks": 9208,
      "▁rich": 9209,
      "sa": 9210,
      "▁Smith": 9211,
      "UNCTION": 9212,
      "Pointer": 9213,
      "pective": 9214,
      "131": 9215,
      "▁widget": 9216,
      "ista": 9217,
      "▁agency": 9218,
      "▁sich": 9219,
      "ologies": 9220,
      "▁trial": 9221,
      "alysis": 9222,
      ".check": 9223,
      "ARK": 9224,
      "▁onChange": 9225,
      "about": 9226,
      "',$": 9227,
      "(val": 9228,
      "▁placed": 9229,
      "_NO": 9230,
      "▁dan": 9231,
      ".equal": 9232,
      "\t▁▁▁▁▁": 9233,
      "▁weather": 9234,
      ".game": 9235,
      "▁destination": 9236,
      "_USER": 9237,
      "iece": 9238,
      "▁provider": 9239,
      ".last": 9240,
      "plex": 9241,
      "Note": 9242,
      "/js": 9243,
      "▁planning": 9244,
      "attribute": 9245,
      "PRO": 9246,
      "atches": 9247,
      "▁<-": 9248,
      "▁seeing": 9249,
      "▁cancel": 9250,
      "_ind": 9251,
      ".keys": 9252,
      "▁visual": 9253,
      "▁Current": 9254,
      "▁College": 9255,
      "▁Rock": 9256,
      "▁agreement": 9257,
      "▁Store": 9258,
      "oving": 9259,
      "▁corner": 9260,
      "ampions": 9261,
      "ISE": 9262,
      "Fin": 9263,
      "▁protection": 9264,
      "▁fi": 9265,
      "Play": 9266,
      "plugin": 9267,
      ")}": 9268,
      ".frame": 9269,
      "-z": 9270,
      "▁transition": 9271,
      "igin": 9272,
      "▁candidate": 9273,
      "▁Union": 9274,
      "_values": 9275,
      "(map": 9276,
      "cle": 9277,
      "▁trend": 9278,
      "wide": 9279,
      "aren": 9280,
      "Loc": 9281,
      "UTH": 9282,
      "▁Bay": 9283,
      "▁smaller": 9284,
      "ius": 9285,
      "141": 9286,
      "well": 9287,
      "▁criminal": 9288,
      "▁conflic": 9289,
      "bert": 9290,
      "_INT": 9291,
      "▁investment": 9292,
      "custom": 9293,
      "▁Session": 9294,
      "_write": 9295,
      "ania": 9296,
      "▁Mass": 9297,
      "_EQ": 9298,
      "_NOT": 9299,
      "▁violence": 9300,
      "Argument": 9301,
      "_email": 9302,
      "▁belong": 9303,
      "_function": 9304,
      "▁enemy": 9305,
      "ema": 9306,
      "▁Address": 9307,
      ".empty": 9308,
      "▁inner": 9309,
      "▁Contact": 9310,
      "Loader": 9311,
      "<input": 9312,
      "▁CA": 9313,
      "lot": 9314,
      "▁pictures": 9315,
      "▁Support": 9316,
      "_names": 9317,
      "188": 9318,
      "Layer": 9319,
      "▁Click": 9320,
      "Sum": 9321,
      "▁Look": 9322,
      "uous": 9323,
      "Lib": 9324,
      "Flags": 9325,
      "team": 9326,
      "EP": 9327,
      "189": 9328,
      "hat": 9329,
      "override": 9330,
      "apsed": 9331,
      "▁labels": 9332,
      "quis": 9333,
      "▁Stream": 9334,
      "_device": 9335,
      "▁Commit": 9336,
      "(root": 9337,
      "\"}": 9338,
      ".isEmpty": 9339,
      "126": 9340,
      "\tM": 9341,
      "▁angle": 9342,
      "▁Because": 9343,
      "%%%%%%%%": 9344,
      "▁aim": 9345,
      "▁stick": 9346,
      "stmt": 9347,
      "agraph": 9348,
      "answer": 9349,
      "▁clin": 9350,
      "▁Isl": 9351,
      ".ext": 9352,
      "▁INT": 9353,
      "▁styles": 9354,
      "▁born": 9355,
      "▁scr": 9356,
      "▁expand": 9357,
      "▁raised": 9358,
      "TextBox": 9359,
      "ILL": 9360,
      "------------------------------------------------": 9361,
      "HTTP": 9362,
      "132": 9363,
      ">)": 9364,
      "_char": 9365,
      "resource": 9366,
      "▁episode": 9367,
      "▁'_": 9368,
      "▁Es": 9369,
      "▁Earth": 9370,
      "UPDATE": 9371,
      "133": 9372,
      "▁Sou": 9373,
      "uis": 9374,
      "types": 9375,
      "▁mas": 9376,
      "▁fav": 9377,
      "▁construct": 9378,
      "_rate": 9379,
      "eras": 9380,
      "▁|\n": 9381,
      "roperties": 9382,
      "▁external": 9383,
      "▁applied": 9384,
      "▁prefix": 9385,
      "oted": 9386,
      "lers": 9387,
      "▁cold": 9388,
      "▁SP": 9389,
      "▁Church": 9390,
      "▁Output": 9391,
      "losed": 9392,
      "ificate": 9393,
      "operation": 9394,
      "herit": 9395,
      "xFF": 9396,
      ".env": 9397,
      "_err": 9398,
      "osh": 9399,
      "Direction": 9400,
      "Cancel": 9401,
      "▁Frank": 9402,
      "▁finding": 9403,
      ".)\n\n": 9404,
      "▁router": 9405,
      "ses": 9406,
      "▁crow": 9407,
      "=='": 9408,
      "▁sand": 9409,
      "▁rid": 9410,
      "iture": 9411,
      "▁entre": 9412,
      "▁observ": 9413,
      "▁vac": 9414,
      "-T": 9415,
      "Art": 9416,
      "night": 9417,
      ".search": 9418,
      "▁exchange": 9419,
      "▁district": 9420,
      ".os": 9421,
      "▁department": 9422,
      "▁documents": 9423,
      "▁century": 9424,
      "▁Next": 9425,
      "Host": 9426,
      "▁KIND": 9427,
      "▁susp": 9428,
      "-P": 9429,
      "rend": 9430,
      ".em": 9431,
      "uite": 9432,
      "isters": 9433,
      "(json": 9434,
      "▁Ann": 9435,
      "wt": 9436,
      "ati": 9437,
      "▁HTML": 9438,
      "when": 9439,
      "Directory": 9440,
      "▁shut": 9441,
      "<a": 9442,
      "edy": 9443,
      "▁healthy": 9444,
      "▁temperature": 9445,
      "▁Gen": 9446,
      "▁metal": 9447,
      "▁submit": 9448,
      "▁DO": 9449,
      "▁attract": 9450,
      "▁{};\n": 9451,
      "▁Word": 9452,
      "▁ll": 9453,
      "▁seemed": 9454,
      "ko": 9455,
      "IED": 9456,
      "▁labor": 9457,
      ".Context": 9458,
      "▁asset": 9459,
      "you": 9460,
      "▁cars": 9461,
      "▁Column": 9462,
      "▁square": 9463,
      "▁NSString": 9464,
      "apes": 9465,
      "...\n": 9466,
      "▁thanks": 9467,
      "(props": 9468,
      "▁tick": 9469,
      "▁experiment": 9470,
      "▁prison": 9471,
      "tree": 9472,
      "-text": 9473,
      "▁IOException": 9474,
      "-width": 9475,
      "_STATUS": 9476,
      "fast": 9477,
      "-body": 9478,
      "-header": 9479,
      "▁guar": 9480,
      "crete": 9481,
      "▁Tim": 9482,
      "▁clearly": 9483,
      "▁Republican": 9484,
      "▁justify": 9485,
      "\t▁▁▁▁": 9486,
      "cache": 9487,
      ";//": 9488,
      "▁presence": 9489,
      "▁factors": 9490,
      "▁employee": 9491,
[...]
